, 1581164
. 1112325
▁the 957137
▁de 760719
▁a 695659
s 572747
▁of 485744
▁în 474821
▁to 443510
▁și 433975
▁and 407504
▁in 364972
e 358453
ă 322449
▁să 266713
i 242872
- 241986
a 226264
▁la 212819
▁that 202155
▁is 200731
ul 195942
▁pentru 191409
▁for 182238
▁care 173833
▁din 169412
▁că 168046
▁ 161718
le 153270
ți 151599
▁cu 139877
▁o 139800
▁on 134799
▁este 124415
ului 122708
▁un 121405
▁I 119525
ing 111382
▁are 108682
t 107072
▁nu 104219
ed 104041
▁be 103915
▁European 103424
lor 102642
' 101855
▁mai 99791
▁this 99380
▁( 97444
▁pe 95720
▁- 95669
rea 93635
▁The 92664
▁with 90600
▁we 89106
▁" 88385
▁as 88286
▁have 84420
▁se 83688
d 82338
▁it 79375
▁not 77240
▁will 77185
n 75892
) 75294
▁al 70468
▁au 70186
▁by 69946
te 68275
▁which 64295
ly 63246
ția 62355
tă 61954
▁has 60956
ție 60668
▁va 59863
re 58963
▁fost 58246
▁an 57248
▁at 56286
▁fi 54042
m 52987
▁ce 52177
tion 51866
▁ca 51603
▁În 51542
▁sunt 50943
▁trebuie 50906
▁ar 50833
▁acest 50541
▁EU 50002
ții 49218
▁from 47425
", 46731
: 45969
▁also 44366
▁UE 43350
▁s 43207
u 42885
▁am 42267
er 42040
▁ne 41119
▁economic 40499
▁Commission 40330
▁would 40267
en 40054
y 39661
▁important 39531
▁was 38839
țe 38359
și 37275
▁all 36810
area 36613
▁state 36176
c 35971
ăm 35128
ției 34726
▁ale 34637
▁its 34115
ilor 33924
▁A 33858
▁această 33740
▁President 32938
▁but 32934
▁con 32813
▁do 32290
▁been 32257
▁should 32246
▁their 32004
ș 31835
▁re 31672
▁said 31627
al 31186
▁must 31122
ării 30836
▁țări 30778
▁our 30648
▁Kosovo 30595
▁Member 30183
o 30156
ează 30038
▁Serbia 30001
▁We 29588
es 29235
▁privind 29168
nța 29000
▁more 28867
elor 28722
▁Mr 28544
▁Union 28469
nță 28350
▁De 28320
ele 28226
▁-- 28128
▁acord 27802
at 27455
▁In 27230
▁Parlament 27229
▁It 27159
▁or 26785
▁vor 26715
ne 26689
▁asemenea 26678
▁can 26411
▁toate 26097
▁co 26085
▁raport 25931
▁fie 25922
▁prin 25681
? 25453
▁Europe 25444
▁Parliament 25394
▁lucru 25242
▁States 25238
șe 25028
uri 25001
▁countries 24939
▁e 24907
; 24840
▁new 24761
ment 24595
▁they 24339
▁you 24326
▁trebui 24318
ar 23893
ze 23590
▁report 23478
". 23458
▁sau 23455
ând 23372
l 23318
▁support 23273
are 23245
an 23179
▁membre 22995
▁there 22926
▁one 22753
▁dintre 22671
▁pre 22610
se 22564
▁who 22523
țiile 22493
▁între 22325
▁This 22230
ii 22131
▁declarat 22117
▁ceea 22078
▁people 21927
▁le 21875
ce 21782
▁very 21618
▁asupra 21603
ei 21408
▁like 21385
] 21347
ile 21334
▁foarte 21299
▁about 21253
▁[ 21190
▁unei 21017
▁so 21004
▁need 20935
▁other 20935
▁mod 20845
▁cele 20829
▁these 20814
itatea 20782
nă 20553
on 20481
▁no 20351
▁D 20230
ti 20203
▁într 20163
ni 19835
▁sub 19761
▁country 19717
țele 19614
▁euro 19501
urile 19342
une 18933
din 18813
ști 18754
▁time 18610
un 18540
▁only 18535
▁dacă 18405
▁vote 18401
▁Council 18383
▁guvern 18303
▁acestea 18220
▁Europeană 18157
rii 18122
▁unui 18019
▁up 17965
▁ani 17921
▁mult 17915
▁because 17798
președinte 17793
urilor 17655
▁sector 17583
▁cum 17470
▁european 17452
▁dar 17321
▁cadrul 17311
▁between 17211
▁special 17196
▁social 17093
itate 16987
▁timp 16939
▁out 16847
▁coopera 16815
▁aceste 16812
▁faptul 16807
▁were 16762
▁face 16690
▁Europa 16653
▁com 16581
▁noi 16508
▁public 16479
r 16420
▁Comisiei 16413
▁policy 16366
eze 16345
▁Comisia 16333
▁iar 16302
" 16290
▁putea 16218
▁political 16205
▁he 16190
th 16098
▁government 16033
▁us 15943
▁după 15814
▁into 15804
▁Macedonia 15766
▁mare 15760
ity 15755
▁poate 15725
▁agreement 15710
ată 15704
▁către 15701
ive 15693
▁what 15676
▁over 15654
z 15605
au 15489
▁such 15282
▁en 15043
▁dori 14982
▁rights 14969
is 14863
▁my 14840
▁under 14799
ted 14727
▁cetățeni 14716
ci 14644
▁pot 14637
▁Uniunea 14620
că 14591
▁work 14550
▁now 14306
▁politici 14282
▁market 14252
▁two 14197
▁precum 14175
▁reform 14162
ion 14160
▁against 14160
▁despre 14144
▁încă 14144
in 14139
▁citizen 14096
ități 14087
cy 14030
▁urmare 13999
▁măsuri 13983
▁if 13961
▁direct 13939
ri 13927
▁first 13922
▁men 13921
▁than 13853
▁multe 13846
▁doar 13818
cra 13810
▁Albania 13774
▁sa 13755
▁Europene 13735
▁Uniunii 13719
▁adopt 13702
▁astfel 13638
ității 13625
▁year 13621
▁când 13567
▁South 13548
▁aceasta 13535
▁însă 13518
▁deoarece 13489
âr 13474
▁take 13437
▁when 13408
▁his 13402
▁respect 13388
▁financial 13358
ty 13349
li 13339
▁privire 13322
▁acum 13296
▁make 13289
▁împotriva 13277
▁crisis 13265
▁lor 13245
▁sprijin 13183
▁them 13174
▁Minister 13088
▁some 13082
esc 13071
▁those 13050
▁Bulgaria 12959
ări 12923
ească 12882
▁internațional 12865
▁years 12861
ting 12817
▁există 12780
▁believe 12776
▁privește 12735
▁well 12664
▁cel 12662
ic 12647
de 12623
țiilor 12579
▁ș 12480
ie 12463
it 12438
ță 12434
am 12420
▁până 12414
▁Cu 12408
), 12403
ț 12403
▁being 12387
▁Belgrad 12362
▁major 12290
ast 12246
▁international 12245
▁cât 12225
▁parte 12209
▁europene 12154
▁nivel 12151
▁două 12129
▁measure 12048
▁made 12027
▁Times 12003
▁proposal 11967
▁just 11912
▁development 11809
▁muncă 11764
▁ci 11755
▁O 11753
▁Am 11671
▁many 11656
▁plan 11626
▁pro 11614
▁However 11591
der 11587
▁legisla 11585
▁față 11561
▁energy 11550
▁ex 11520
▁Tur 11503
▁standard 11501
itățile 11491
▁' 11472
ește 11415
▁disc 11379
vă 11375
▁cri 11365
▁afirma 11333
▁își 11325
▁clar 11294
). 11285
able 11280
▁global 11253
▁issue 11239
▁S 11228
ța 11222
▁alte 11191
▁acestui 11183
▁Este 11164
pozi 11139
▁acesta 11097
▁any 11070
▁propune 11027
▁way 10951
▁region 10947
▁BiH 10945
uni 10927
ților 10886
▁order 10881
▁vedere 10878
ate 10872
▁avea 10869
▁future 10857
▁trans 10851
▁most 10807
▁Croatia 10804
▁Nu 10692
▁general 10674
▁instrument 10650
▁atât 10628
▁luni 10575
▁could 10568
▁NATO 10566
▁had 10565
▁fără 10529
▁therefore 10525
nței 10520
▁che 10495
▁unor 10488
▁national 10487
▁good 10466
ary 10393
▁process 10384
▁think 10370
tul 10331
▁SE 10299
▁part 10290
▁after 10280
▁Bosni 10250
▁cea 10248
▁situation 10241
ză 10214
▁budget 10195
tor 10174
▁last 10161
▁Turkey 10091
▁control 10066
ră 10052
▁făcut 10046
▁na 10039
▁say 9981
▁ai 9970
st 9969
▁ac 9969
▁where 9939
▁acestei 9929
▁loc 9924
▁fundamental 9919
ia 9888
▁human 9838
▁nevoie 9838
▁lui 9837
▁vom 9818
▁fact 9807
▁drept 9792
b 9771
▁right 9758
▁avem 9703
▁Prin 9688
▁transport 9658
▁see 9652
Time 9623
tions 9613
▁To 9558
j 9542
▁bine 9503
▁cei 9502
▁autor 9489
▁prezent 9488
▁creștere 9460
ală 9431
ște 9414
isation 9410
▁solu 9409
lu 9383
▁demo 9371
▁rând 9344
▁same 9341
▁reprezintă 9328
▁institution 9302
▁law 9299
▁noastre 9280
▁Consiliului 9263
▁decât 9244
▁ensure 9231
▁trecut 9228
▁politică 9200
▁f 9190
▁național 9168
▁As 9154
punerea 9112
▁per 9088
cia 9073
▁posibil 9049
▁possible 8995
ările 8994
▁security 8988
▁UN 8981
▁debate 8979
▁world 8951
im 8947
▁d 8936
na 8932
ation 8927
ve 8884
▁stat 8877
▁inter 8872
▁access 8870
▁Acest 8861
▁clear 8856
▁legal 8854
▁par 8814
▁nego 8753
ați 8735
▁privi 8732
▁use 8730
▁resolution 8725
▁area 8722
▁both 8721
▁vot 8707
ja 8704
▁system 8699
▁democratic 8686
za 8683
▁puțin 8681
▁Romania 8662
▁Pre 8659
▁sale 8650
▁rezo 8642
▁final 8639
▁grup 8636
ers 8634
▁mulțum 8623
▁real 8623
▁still 8578
no 8572
▁concern 8562
est 8523
avour 8513
▁trei 8508
▁cred 8502
▁actual 8499
ene 8498
▁domeniul 8479
▁even 8476
ca 8473
▁want 8465
▁me 8464
▁su 8459
▁el 8443
▁comun 8438
▁i 8438
▁consider 8427
ară 8382
▁through 8377
▁during 8364
▁level 8359
ința 8349
▁aplicar 8337
▁celor 8327
h 8324
▁protecți 8303
pă 8250
▁end 8250
▁scris 8233
▁mari 8223
▁today 8221
▁buget 8200
▁1 8194
▁negoci 8183
▁hope 8180
▁putem 8175
▁stabil 8161
▁La 8136
▁impact 8099
▁țară 8064
ism 8058
▁case 8051
▁probleme 8018
▁votat 8009
▁much 8001
▁său 7991
ice 7989
▁cannot 7951
▁nou 7946
▁așa 7943
▁within 7941
▁place 7936
▁Cro 7931
▁vă 7929
▁continue 7925
▁deja 7910
▁fiind 7909
▁Do 7902
va 7883
▁problem 7858
▁does 7853
▁situa 7841
lui 7830
▁financiar 7823
/ 7817
▁already 7809
▁urmă 7807
▁particular 7795
▁recent 7776
▁point 7760
▁how 7755
▁E 7754
▁avut 7751
fi 7723
▁îmbunătăți 7723
▁protection 7707
▁including 7691
▁rela 7689
▁primul 7655
▁here 7649
ază 7644
▁That 7631
▁local 7614
men 7612
▁favoarea 7609
▁help 7606
▁Com 7597
izarea 7567
ving 7532
▁programme 7530
▁question 7530
▁number 7526
em 7480
▁eforturi 7475
▁drepturile 7471
▁omului 7469
▁atunci 7458
▁îi 7456
pun 7443
sh 7434
▁common 7433
▁spus 7427
▁fina 7390
or 7384
▁bună 7359
▁long 7354
▁partea 7348
tății 7332
▁Trebuie 7331
▁una 7326
▁interest 7310
▁Un 7304
▁chiar 7301
ere 7262
▁Din 7260
▁Tre 7260
zi 7259
▁regional 7256
cie 7249
▁since 7244
▁înainte 7242
▁crime 7231
▁baza 7225
▁procesul 7223
▁politice 7211
▁regard 7207
▁Mada 7201
mi 7200
▁securitate 7192
▁instituții 7190
▁implement 7182
▁three 7159
tive 7140
▁Aceasta 7136
ness 7125
▁drepturilor 7121
▁issues 7117
▁000 7104
▁pie 7104
▁war 7098
▁timpul 7094
▁dezvoltare 7092
▁des 7076
▁Consiliul 7075
▁achieve 7069
▁role 7069
▁able 7055
▁talk 7052
▁constitu 7031
▁progres 7031
▁regiune 7029
▁power 7026
▁declara 7023
▁permite 7022
▁dis 7019
▁remain 6999
▁nuclear 6994
▁election 6993
▁proces 6992
▁set 6984
▁trade 6975
ge 6974
The 6970
▁condiții 6947
▁investi 6933
▁sur 6916
▁next 6868
▁op 6852
▁persoane 6837
▁noastră 6832
▁There 6815
irea 6795
▁without 6777
▁moment 6759
▁context 6747
▁put 6744
▁po 6739
▁change 6726
▁fapt 6722
▁information 6719
▁own 6716
sti 6706
▁stabilit 6698
nț 6683
▁anul 6683
▁îl 6679
ties 6678
▁financiare 6672
▁ang 6671
▁Acesta 6669
▁di 6663
▁punct 6662
▁know 6661
▁es 6637
▁fund 6635
▁authorities 6627
▁tuturor 6619
▁astăzi 6617
▁your 6614
▁problems 6610
▁viitor 6606
▁oficial 6603
▁official 6587
▁Prime 6584
rile 6556
ător 6541
▁before 6534
▁areas 6531
▁termen 6526
▁acestor 6516
da 6514
ous 6496
▁situația 6495
▁problemă 6480
▁nici 6477
▁result 6462
▁locuri 6459
▁obliga 6456
▁tur 6454
▁cost 6449
A 6438
▁current 6438
▁adoptat 6437
▁et 6437
▁cazul 6433
▁while 6432
▁include 6410
▁needs 6406
ations 6402
▁strong 6402
▁exemplu 6401
tu 6400
▁conflict 6395
▁necessary 6390
▁decision 6377
▁economy 6376
▁priorit 6352
▁dez 6347
▁By 6322
▁told 6315
ies 6307
▁strategy 6303
▁matter 6298
▁energie 6297
▁why 6292
▁too 6271
▁progress 6261
▁State 6252
▁reduce 6246
prinder 6245
ling 6232
▁meeting 6232
aty 6230
▁cauza 6227
plin 6221
▁example 6216
▁Euro 6210
▁fel 6206
ry 6199
mend 6195
▁aici 6195
▁implica 6188
▁inițiat 6182
▁document 6177
▁total 6174
ică 6172
▁may 6168
▁women 6159
▁position 6148
▁numai 6138
▁urma 6135
▁dl 6134
▁sistem 6127
pare 6118
▁call 6118
ătoare 6116
▁principi 6109
▁importa 6103
▁număr 6103
▁legislativ 6089
▁increase 6081
▁obiective 6067
▁welcome 6066
▁towards 6064
europe 6063
▁susțin 6062
▁Greece 6061
▁taken 6058
▁Trata 6053
ov 6041
▁regula 6041
▁objective 6035
▁however 6028
aj 6027
▁better 6020
▁doresc 6014
▁energetic 6002
▁course 5999
▁fac 5994
DE 5993
▁particularly 5992
▁păr 5984
▁high 5979
▁informații 5971
▁Turki 5967
▁then 5966
▁câteva 5945
▁minister 5944
▁He 5932
▁liber 5925
▁contribui 5921
▁action 5920
▁20 5912
▁Con 5906
▁For 5906
▁politica 5905
▁euros 5904
▁asigura 5903
com 5902
▁10 5899
ită 5898
▁inclusiv 5885
ovic 5883
▁ONU 5880
▁consolida 5878
▁același 5856
▁refer 5853
sion 5850
abilă 5842
▁domni 5838
▁princip 5838
▁schimb 5814
▁further 5808
▁view 5803
▁account 5793
păr 5766
▁tot 5749
▁capital 5741
▁solicit 5738
ian 5719
▁come 5717
▁difficult 5716
▁freedom 5716
▁health 5710
▁Committee 5708
▁mea 5708
▁means 5701
▁US 5697
ments 5690
▁publice 5689
mentul 5677
▁civil 5676
bil 5669
▁milioane 5667
▁strength 5659
izare 5658
▁peste 5658
▁rapport 5657
▁main 5654
erea 5648
os 5638
ver 5632
▁politic 5629
▁data 5621
▁agree 5619
▁spune 5614
dies 5613
▁economie 5612
▁mă 5605
ament 5602
▁dezvoltarea 5602
▁acestora 5601
▁specific 5601
vic 5591
cu 5590
tina 5585
isi 5580
▁pun 5580
dic 5577
▁membru 5567
Ge 5555
▁referitoare 5549
▁afaceri 5545
▁prote 5545
tty 5541
▁Pris 5537
▁gre 5537
▁sfârșit 5525
▁Europei 5522
▁foreign 5518
fici 5515
▁neces 5513
▁Grup 5504
▁amen 5499
rup 5496
tului 5494
▁extrem 5484
▁back 5469
▁zone 5469
▁become 5460
nic 5454
▁Images 5454
▁If 5450
▁United 5449
▁provide 5446
▁sociale 5440
▁G 5431
▁Balkan 5430
▁luat 5427
▁give 5425
care 5419
▁numele 5418
▁given 5417
▁problema 5406
▁text 5403
as 5402
▁diferite 5397
▁establish 5394
▁susține 5394
▁close 5391
▁motiv 5391
▁m 5362
▁efforts 5360
▁puternic 5359
so 5353
med 5349
▁încât 5348
▁media 5345
▁among 5340
▁At 5335
▁membri 5331
▁criteri 5330
▁importante 5320
▁reglement 5320
▁Dacă 5316
▁investment 5316
▁Group 5315
▁bun 5314
bona 5312
▁tax 5311
▁different 5308
▁far 5290
red 5285
▁Lisa 5277
▁schimbări 5277
tele 5273
pus 5271
▁Sunt 5265
▁nostru 5265
▁improve 5260
▁țara 5257
▁terms 5255
▁află 5253
vo 5251
▁Lisbon 5248
▁piața 5243
unii 5234
în 5233
▁unul 5228
▁great 5222
▁Unite 5221
▁El 5210
cția 5201
▁2 5195
▁gent 5190
▁12 5186
▁whether 5186
▁conditions 5179
▁comercial 5178
▁compromis 5175
torilor 5171
ning 5170
▁initiative 5168
▁Cred 5163
ez 5154
▁popula 5154
▁Se 5144
▁aspecte 5131
▁spun 5120
▁effective 5112
▁again 5107
▁discuss 5107
▁regiuni 5107
▁program 5099
▁externe 5094
cul 5089
▁femei 5087
ist 5085
onat 5079
▁Domnul 5075
▁Ser 5073
opera 5066
▁ad 5066
▁propose 5065
▁free 5064
▁legate 5064
▁Social 5062
▁mandat 5062
▁rules 5054
▁Mrs 5052
▁orice 5052
I 5045
▁principal 5044
rilor 5041
ești 5034
um 5031
▁thank 5028
▁framework 5023
do 5015
▁growth 5011
▁eficient 5007
ine 5002
▁approach 5002
▁2020 5001
▁Parti 5000
▁ales 4997
▁Grecia 4996
▁form 4996
▁adevărat 4991
▁si 4978
▁rapid 4974
▁M 4971
▁activități 4969
▁procedure 4968
▁răspuns 4965
cțiune 4963
▁da 4960
▁contra 4950
▁unde 4948
▁fiecare 4944
▁pas 4943
▁dezbatere 4938
▁organizat 4937
▁writing 4937
ko 4933
gă 4932
▁On 4931
▁mar 4931
ability 4921
▁climate 4919
▁food 4915
lini 4914
▁unele 4912
▁certain 4910
▁exp 4908
▁used 4901
us 4899
▁dată 4898
▁caz 4891
ch 4889
▁15 4884
sigur 4876
▁guarantee 4875
man 4873
▁border 4868
▁second 4868
▁aceea 4865
▁mulți 4856
▁lu 4852
mă 4851
▁former 4849
ase 4848
▁implementation 4837
▁resources 4837
▁down 4834
fru 4830
▁They 4826
▁strategic 4823
tori 4820
▁măsură 4815
▁non 4815
▁relations 4815
▁doamne 4814
▁asisten 4811
▁aștept 4809
la 4802
▁Pe 4786
▁together 4785
▁services 4783
▁group 4777
▁consumer 4775
▁monitor 4767
pri 4759
▁3 4758
▁obiectiv 4753
▁război 4751
▁exprima 4749
▁F 4746
ncy 4741
▁produc 4739
▁candidat 4737
▁critic 4736
▁l 4733
▁million 4733
ezi 4732
sed 4732
▁working 4730
ful 4728
▁aspect 4725
▁combate 4723
erii 4719
▁members 4719
▁International 4717
▁câștig 4713
CE 4712
▁spor 4707
▁summit 4707
ta 4700
▁du 4698
lar 4693
▁did 4692
ără 4682
escu 4675
eur 4674
▁organiza 4666
▁police 4663
▁companies 4658
▁says 4657
be 4649
bile 4648
▁personal 4648
▁export 4643
▁project 4643
chi 4641
▁succes 4634
▁act 4631
▁compete 4623
▁30 4617
▁B 4612
▁facă 4611
▁calitate 4609
▁products 4607
▁business 4603
▁voi 4603
▁urge 4602
▁few 4596
▁parties 4596
line 4593
p 4586
▁policies 4584
▁small 4584
▁third 4580
▁necesare 4575
▁going 4569
▁corect 4568
cura 4567
▁Greek 4566
▁mici 4564
bi 4555
▁recu 4555
▁multi 4552
▁Pentru 4551
▁key 4542
▁EUR 4541
▁Ce 4540
▁fer 4538
▁gran 4538
he 4537
oare 4537
▁serious 4533
▁preț 4528
▁fish 4523
▁her 4518
▁risk 4514
▁head 4510
▁especially 4508
▁large 4501
puta 4498
ton 4497
▁week 4493
▁comune 4490
iunile 4489
▁sprijinul 4488
▁După 4486
▁ra 4483
▁climat 4480
▁statement 4475
▁opportunity 4473
izează 4464
▁nouă 4461
tăm 4459
▁money 4458
▁pă 4458
▁forward 4457
tar 4455
▁continua 4454
▁credit 4454
▁aproximativ 4451
▁go 4447
▁done 4445
▁interes 4445
ns 4444
▁every 4442
▁președintele 4442
▁legătură 4441
▁open 4440
ised 4437
▁bank 4431
▁stabili 4428
▁cro 4426
▁deal 4411
▁doilea 4411
▁meu 4409
▁find 4405
▁Ar 4402
▁acordat 4401
▁importance 4399
▁Regula 4392
▁criminal 4392
▁express 4391
▁create 4387
▁pa 4387
▁commitment 4386
▁p 4382
▁garant 4379
struct 4376
C 4375
▁months 4374
▁rol 4373
ship 4372
▁asigură 4370
▁contribu 4370
▁prima 4368
▁solicita 4367
▁dreptul 4366
▁suntem 4360
▁another 4359
▁fonduri 4354
▁present 4354
kovic 4352
▁consumatori 4352
▁obține 4348
▁juridic 4343
▁siguranță 4341
▁step 4340
▁România 4335
ui 4330
▁based 4327
ite 4325
▁post 4323
ance 4321
ther 4316
▁reducere 4311
▁cultural 4310
nte 4309
iunea 4304
▁institu 4301
▁Ne 4294
▁workers 4290
▁prim 4289
▁început 4289
▁address 4287
▁zi 4287
▁Sko 4284
▁basis 4279
▁aid 4277
▁Presiden 4276
▁children 4276
▁creare 4275
ărilor 4274
▁sper 4269
▁bune 4262
▁Party 4260
▁research 4247
novic 4245
▁27 4243
oper 4236
▁crucial 4221
turi 4220
▁join 4217
▁cer 4216
▁Cy 4214
▁force 4214
▁pune 4211
▁essential 4206
▁What 4202
▁poli 4201
▁represent 4201
▁states 4200
dă 4191
▁making 4191
▁strategie 4191
iei 4188
▁Democrat 4188
co 4187
▁Republic 4186
D 4184
▁altă 4172
▁billion 4172
▁nivelul 4165
bă 4164
▁pur 4163
▁referi 4162
▁5 4159
▁oraș 4159
torii 4153
▁mi 4150
▁full 4146
▁bring 4144
▁prea 4144
▁Bal 4141
▁viitoare 4141
▁peace 4135
ise 4133
▁competi 4131
▁plus 4130
▁Această 4128
bour 4125
▁continuă 4124
▁împreună 4119
▁greater 4115
tic 4110
▁domnul 4102
▁Ta 4101
▁integration 4097
▁positive 4096
▁get 4095
▁C 4094
▁Potrivit 4093
▁educa 4092
▁semnificativ 4087
▁continuare 4078
▁opinion 4073
ina 4069
▁necesar 4056
▁Russia 4052
▁prevent 4052
oase 4051
▁allow 4049
▁vederea 4047
je 4042
ities 4036
▁transfer 4036
▁whole 4034
▁life 4033
▁înseamnă 4033
▁But 4025
▁Re 4025
▁fight 4016
▁period 4013
cla 4011
led 4010
▁aibă 4007
▁adecvat 4004
▁cale 3999
▁împ 3994
▁lung 3993
▁start 3991
▁sem 3990
▁electric 3983
▁responsibility 3981
▁amb 3976
▁bilateral 3975
▁exista 3973
▁crește 3970
adevăr 3969
▁potrivit 3969
▁minori 3966
▁complet 3965
▁agricultura 3964
▁jobs 3963
nu 3958
▁egal 3958
▁According 3957
▁zile 3957
▁parlament 3953
▁îm 3953
▁solution 3952
▁emis 3951
▁party 3937
cted 3936
▁plă 3935
▁least 3929
▁behalf 3927
▁Barro 3919
the 3910
▁hand 3909
to 3906
▁move 3905
pru 3904
▁patru 3903
▁short 3902
▁alegeri 3900
▁domenii 3900
▁introduce 3897
▁aproape 3896
▁following 3888
g 3887
▁fond 3885
▁tribunal 3884
▁problemele 3882
▁reflect 3881
▁Ci 3880
iunilor 3879
▁Ha 3879
▁proiecte 3879
▁era 3877
▁she 3877
▁propus 3871
▁General 3869
▁subject 3867
▁dor 3866
▁Statele 3865
▁ask 3865
▁society 3862
▁ridicat 3858
▁libertate 3857
▁comer 3852
aja 3849
▁trata 3849
less 3848
▁No 3848
▁best 3843
▁profit 3842
▁4 3841
▁regulament 3839
▁anti 3836
MI 3835
ur 3832
▁cre 3831
▁taking 3831
▁military 3830
nce 3827
▁dificil 3827
il 3822
▁wish 3816
▁protect 3815
▁Fund 3812
▁mediu 3811
▁Acord 3810
▁Her 3809
▁similar 3809
▁lume 3808
▁date 3807
▁întreg 3802
gue 3794
▁four 3791
▁China 3789
▁statut 3788
▁Serbi 3786
▁stră 3781
▁li 3778
▁discuta 3777
▁11 3775
▁each 3775
▁environmental 3774
et 3769
con 3768
gri 3768
▁facem 3768
▁liberal 3768
vina 3766
▁anumite 3766
▁Bank 3762
S 3761
▁joint 3761
ându 3760
▁participat 3760
▁education 3759
▁results 3757
ng 3756
▁structura 3755
▁sens 3754
▁several 3754
▁independent 3745
▁Ash 3744
▁25 3743
▁agen 3742
▁practice 3741
▁according 3738
▁cere 3735
▁member 3732
▁Monday 3729
▁currently 3723
▁industry 3715
▁demand 3709
▁Pro 3703
▁mobil 3703
▁So 3699
tură 3696
▁internal 3685
▁saying 3685
firm 3683
ționale 3676
ego 3675
stan 3675
▁aborda 3674
▁îndeplini 3671
tare 3668
▁House 3666
bat 3664
▁Iran 3662
che 3659
H 3657
▁colegi 3651
▁majority 3649
▁due 3645
▁Co 3640
▁salut 3640
▁delega 3639
tri 3638
igh 3637
▁competitive 3635
▁increasing 3635
▁noștri 3632
▁cent 3626
▁held 3623
▁economi 3622
ans 3621
▁These 3621
▁cazuri 3620
ant 3617
▁attention 3617
▁ră 3616
ale 3612
ern 3612
▁fața 3611
▁ele 3610
▁central 3609
▁SUA 3608
▁private 3607
▁V 3606
me 3602
▁safety 3598
▁acesteia 3597
▁fun 3597
▁ia 3595
▁miliarde 3593
▁Central 3591
▁significant 3590
▁representativ 3588
▁Herz 3587
▁aflat 3587
▁Foreign 3586
▁decembrie 3586
ut 3583
▁revizui 3582
▁management 3578
oasă 3576
▁bloc 3575
▁accept 3574
om 3571
▁partid 3570
▁meet 3561
▁really 3560
▁pia 3559
lo 3558
▁facilita 3557
▁stress 3556
▁expected 3555
E 3554
▁întâlni 3551
▁projects 3544
ries 3542
gov 3538
▁18 3537
▁bază 3536
▁im 3536
▁resurse 3530
▁reason 3529
țională 3527
▁groups 3522
We 3514
dependence 3514
▁fully 3513
▁sigur 3511
gru 3507
tors 3506
f 3505
toare 3504
▁viol 3504
responsabilitate 3501
▁cases 3501
▁Președintele 3499
▁operation 3495
izării 3494
▁întrucât 3494
ska 3492
▁anului 3491
▁young 3489
▁something 3488
▁oameni 3486
▁once 3479
▁victim 3479
▁Fond 3478
▁target 3477
abil 3468
dul 3468
▁benefici 3466
▁criza 3463
▁dle 3460
▁martie 3459
▁13 3458
tiv 3456
▁crimes 3456
▁adăuga 3452
▁comuni 3451
▁ago 3450
▁reuni 3449
▁Da 3448
▁community 3448
▁Rusia 3447
▁clearly 3444
ings 3442
lă 3442
▁deficit 3440
▁cinci 3439
sili 3438
▁Consider 3438
▁reprezenta 3437
ific 3433
▁pare 3432
▁Milo 3431
▁iunie 3431
▁threat 3431
dru 3429
▁past 3429
▁14 3427
id 3426
▁înalt 3424
ster 3423
▁minor 3420
▁aceștia 3419
▁employment 3417
▁dumneavoastră 3416
▁conformitate 3411
▁promote 3407
▁2009 3406
▁luna 3404
jor 3402
▁around 3400
▁Court 3399
▁ei 3398
▁ori 3398
▁Ș 3398
▁dvs 3397
▁Kara 3393
▁mecanism 3391
▁potential 3389
ts 3388
▁discrimina 3387
po 3385
▁funcționa 3385
▁ve 3384
ence 3382
▁found 3382
ba 3379
▁oferi 3379
▁printre 3377
▁dialog 3374
▁draft 3374
▁focus 3374
▁întreaga 3372
▁jo 3371
▁spre 3371
▁day 3370
▁adresa 3369
▁demonstrat 3369
▁extinde 3369
▁vi 3366
▁recog 3364
rim 3362
▁Israel 3362
▁independen 3359
▁decizii 3354
▁discussion 3354
dere 3353
▁Wednesday 3353
▁opera 3353
▁interne 3352
onal 3350
▁domeniu 3350
▁dire 3347
▁solidar 3347
▁concur 3345
▁rămâne 3344
▁yet 3343
▁population 3341
▁status 3341
▁model 3335
▁aplica 3333
▁responsabil 3330
▁17 3329
▁visit 3329
▁dialogue 3328
nice 3324
▁K 3323
▁assistance 3323
▁modern 3318
▁ab 3314
▁less 3307
arul 3306
▁always 3306
▁involved 3305
▁realizat 3303
▁vital 3301
▁limit 3300
ven 3298
▁momentul 3296
▁nicio 3296
tarea 3293
▁motive 3293
▁coordona 3292
▁request 3288
▁sustainable 3287
tră 3285
▁curs 3285
K 3282
uring 3282
▁natural 3282
▁u 3282
▁membership 3281
▁prezentat 3281
ac 3277
▁Ministrul 3276
eri 3271
▁ianuarie 3268
▁Mi 3266
▁subiect 3266
▁govern 3264
di 3262
▁things 3261
▁director 3260
▁itself 3260
▁16 3245
▁production 3244
▁6 3241
▁procedur 3241
corrupt 3237
ască 3236
bal 3236
▁ea 3236
▁ajutor 3232
▁partener 3231
▁urgent 3231
▁violence 3228
▁factor 3225
▁single 3225
▁norme 3224
▁side 3224
▁coa 3223
▁considerare 3221
spite 3217
▁întrebare 3215
▁8 3214
▁review 3214
▁referendum 3213
sing 3207
▁agreed 3207
▁societăți 3206
▁mechanism 3205
▁quality 3203
▁afecta 3201
▁proceduri 3200
▁oferă 3196
▁explo 3194
▁consideră 3190
▁scurt 3190
▁With 3187
▁air 3186
▁cerut 3186
▁various 3181
▁acestuia 3177
▁combat 3177
▁ocupa 3176
▁Therefore 3175
term 3174
▁Munt 3174
▁acu 3174
▁conform 3173
▁needed 3171
▁primit 3171
▁niciun 3170
▁probabil 3170
▁începe 3169
▁front 3168
▁Mai 3163
▁leaders 3162
▁pachet 3162
▁met 3159
▁partide 3158
▁import 3156
▁desfășura 3155
▁vizit 3149
▁insist 3147
▁mondial 3147
▁aduce 3146
▁Sofia 3142
▁rural 3141
▁v 3141
nie 3140
▁lead 3138
▁added 3133
▁apel 3133
ug 3131
▁protest 3131
▁called 3130
▁Schengen 3129
▁disa 3126
▁perioadă 3126
▁scopul 3126
▁month 3124
ten 3123
▁organise 3121
▁individual 3119
▁expect 3117
dem 3116
▁miercuri 3115
▁gas 3112
▁ma 3110
▁ilegal 3109
ministr 3108
▁look 3108
▁proiect 3107
▁acordul 3106
▁World 3105
▁off 3105
can 3104
▁Zagreb 3104
▁vorba 3104
▁octombrie 3103
▁victime 3103
▁Direct 3102
ak 3100
dar 3099
▁opposition 3099
IT 3098
les 3098
▁7 3098
▁ajuta 3097
▁lider 3097
▁rather 3097
▁locale 3094
▁court 3093
▁December 3085
▁funding 3085
▁environment 3084
▁dat 3083
▁serie 3080
▁often 3076
▁cuvânt 3074
ân 3072
▁găsi 3071
▁sănătate 3068
▁Într 3068
linie 3067
▁concerned 3067
▁companii 3065
▁him 3059
▁kosovar 3058
▁provision 3053
▁modul 3051
▁East 3050
▁exclu 3050
▁cercetare 3046
▁decizie 3041
▁having 3041
▁solidari 3037
▁Community 3034
▁agenda 3034
▁deosebit 3034
▁play 3034
▁regret 3034
▁integrat 3032
▁privat 3032
▁lack 3030
▁provoc 3030
▁May 3027
▁produse 3026
▁deschis 3025
▁building 3024
▁Montenegro 3023
▁administra 3021
P 3020
▁necesară 3019
ally 3018
▁Na 3018
▁until 3017
atul 3015
▁rolul 3015
▁sistemul 3015
ged 3012
▁Africa 3012
▁Ali 3012
ble 3011
▁lupta 3010
▁soon 3010
▁activities 3005
▁trafic 3004
▁prior 3003
▁infra 3002
▁sources 3002
▁prime 3001
▁șef 3001
▁concrete 3000
ji 2999
▁Tuesday 2996
▁permit 2995
ind 2994
▁five 2994
▁active 2992
▁comunități 2990
tely 2989
▁eu 2988
▁încheie 2987
▁dispoziți 2980
▁emphasis 2979
▁company 2974
▁strict 2974
sta 2973
▁challenges 2973
ini 2972
▁evident 2972
▁conferi 2968
▁activitatea 2962
cin 2961
▁contribute 2959
▁rule 2959
▁Raport 2956
▁semnat 2953
▁acțiuni 2950
si 2949
▁reușit 2949
uș 2946
▁ru 2945
▁response 2940
▁pus 2938
▁pay 2935
▁posibilitatea 2929
▁regim 2927
▁responsible 2926
▁știi 2926
ga 2925
accepta 2924
▁competition 2924
luc 2921
▁anunțat 2920
▁încredere 2918
▁June 2916
▁... 2915
▁labour 2913
▁având 2910
▁aplic 2908
▁balance 2908
▁Government 2907
▁Agreement 2906
cii 2904
▁contract 2904
▁return 2901
▁Al 2894
▁points 2894
vi 2890
▁2010 2888
▁developing 2885
▁noiembrie 2884
▁pozitiv 2883
▁nord 2882
▁rate 2882
! 2881
▁package 2878
AFP 2877
▁existe 2875
▁intern 2875
▁supra 2875
ova 2869
fă 2868
abile 2864
▁dura 2863
▁evaluare 2862
▁show 2862
▁acces 2861
▁inte 2860
▁news 2860
▁Tirana 2859
▁mean 2858
▁punctul 2858
ană 2857
▁21 2857
▁rezolva 2857
▁ajunge 2856
▁24 2855
▁systems 2855
ned 2854
▁lumea 2854
▁changes 2847
▁internet 2843
▁Li 2842
▁curând 2841
ori 2839
▁reach 2839
time 2832
▁invest 2830
nt 2828
▁locul 2828
lea 2827
▁zona 2826
▁ini 2822
▁contribution 2821
▁urmează 2819
▁condus 2818
▁traffic 2816
▁puncte 2813
▁viitorul 2811
▁perioada 2810
▁interven 2807
▁road 2807
▁times 2807
FR 2806
▁Istanbul 2806
▁ter 2803
▁list 2801
▁resp 2801
▁red 2799
▁March 2798
▁costs 2798
▁encourage 2793
▁Mă 2790
▁attack 2788
▁car 2785
▁acele 2784
▁dur 2783
▁100 2782
▁oamenii 2782
▁words 2782
▁începutul 2782
abord 2780
▁Ca 2779
ătorii 2778
▁field 2775
▁cross 2771
▁judici 2771
▁Thursday 2770
nia 2767
▁announced 2767
▁extern 2765
▁Belarus 2763
▁oportun 2763
▁conduct 2762
▁provided 2762
▁Vă 2757
▁maintain 2756
▁practic 2755
▁aprilie 2752
▁illegal 2751
▁implementa 2748
▁along 2747
▁Internațional 2746
▁venit 2745
▁consum 2743
spec 2742
▁Ankara 2739
▁available 2737
▁utilizarea 2735
v 2729
▁toată 2727
▁doua 2725
Reuters 2724
nică 2721
▁intra 2717
ire 2715
▁benefit 2715
▁parteneriat 2715
▁23 2714
▁counter 2714
lic 2713
▁six 2709
▁super 2708
ft 2707
/05 2706
▁administrative 2706
▁conclu 2706
▁arrest 2705
▁alt 2702
▁others 2701
▁stand 2700
ban 2699
go 2698
▁safe 2698
▁2008 2696
▁dezvoltă 2695
▁diplomati 2694
▁job 2693
▁suficient 2693
▁Reprezent 2692
▁share 2692
▁bo 2688
▁ciuda 2688
/06 2686
▁days 2684
ot 2682
▁increased 2680
▁util 2679
▁vigoare 2679
telor 2678
▁Acestea 2678
▁abordar 2677
▁promo 2677
▁relat 2676
▁January 2674
▁introduc 2674
▁cores 2673
▁Reuters 2672
▁imediat 2671
▁promovare 2669
▁vedea 2669
ona 2668
▁impli 2667
▁larg 2665
PL 2664
resc 2663
▁alba 2662
▁primi 2662
▁launch 2660
ismului 2656
ging 2650
ction 2649
▁seen 2648
fer 2647
▁kind 2647
▁regarding 2646
▁perspective 2642
▁lua 2636
▁Minute 2632
▁iulie 2631
ra 2630
▁amount 2629
▁took 2626
▁integra 2625
▁rândul 2625
▁efectua 2624
▁Boris 2623
▁addition 2622
▁bugetul 2622
▁influ 2619
▁Aceste 2618
▁One 2618
▁industrial 2618
▁prevede 2618
▁investiga 2617
▁încheiat 2616
locat 2615
▁interese 2615
▁poverty 2614
▁19 2612
▁actually 2610
▁understand 2609
FOR 2607
▁februarie 2607
▁altor 2606
▁line 2606
▁conference 2605
▁enough 2605
▁Let 2604
▁ajuns 2603
▁multă 2601
▁Mladi 2598
▁promis 2597
▁elimina 2595
▁deschide 2594
▁firm 2589
▁reports 2588
▁Există 2587
▁anume 2586
▁obținut 2586
▁majoritatea 2585
▁Între 2585
▁equal 2584
▁vize 2582
▁creation 2581
k 2579
▁finance 2578
▁involve 2578
van 2577
▁decide 2576
▁Agency 2575
▁anual 2572
▁opinia 2568
▁More 2567
▁constitution 2565
▁plans 2564
▁cursul 2563
▁signed 2563
▁draw 2561
ou 2559
▁decisions 2559
Bi 2557
▁Sper 2556
▁risc 2555
▁extremely 2554
▁Sarajevo 2553
▁leader 2553
▁sure 2551
▁industrie 2550
▁efect 2547
▁anumit 2546
▁enterprise 2544
▁living 2541
▁regime 2538
ma 2536
▁atac 2535
▁impun 2535
▁municipal 2535
▁devenit 2530
▁imigr 2529
▁Slovenia 2528
▁Erdogan 2527
▁gând 2527
▁pension 2527
▁redus 2526
▁vie 2526
▁ultimii 2524
▁2009, 2522
▁permanent 2522
▁fiscal 2521
▁septembrie 2521
▁comes 2520
damente 2519
/08 2518
orul 2518
ent 2516
▁event 2516
▁9 2513
▁întrebări 2513
șa 2510
nd 2507
▁mine 2507
pje 2505
▁president 2505
▁principale 2505
▁visa 2504
▁across 2503
ovski 2502
▁totuși 2502
▁north 2500
dzi 2499
▁centre 2499
▁reprezentanți 2494
▁appropriate 2493
▁rezultate 2493
▁alegerile 2490
▁conclusion 2490
▁simply 2488
▁cărui 2487
▁22 2484
king 2483
▁28 2483
▁never 2483
▁An 2482
▁pressure 2482
▁produce 2481
cal 2479
▁simplu 2479
▁tranz 2479
ified 2478
▁avoid 2478
▁apply 2477
▁Security 2476
ins 2474
▁Extern 2473
▁team 2473
bu 2470
▁AP 2470
▁persoanelor 2470
prim 2466
▁50 2466
▁You 2464
▁om 2464
▁table 2463
▁Development 2461
▁New 2461
▁Jo 2459
▁pace 2457
▁values 2454
gro 2453
▁Avem 2452
▁crea 2452
missions 2451
▁ecologic 2451
▁Brussel 2450
▁received 2450
col 2449
▁October 2449
ali 2448
▁integr 2448
▁Kost 2447
▁Economic 2446
cțiunile 2442
▁armat 2442
fen 2440
tim 2440
▁aprobat 2440
▁Fra 2439
▁mentioned 2438
▁stop 2438
▁limita 2437
res 2435
▁bucur 2435
iste 2434
▁live 2433
▁utilizat 2433
▁sistemului 2431
ro 2430
▁Le 2430
▁asigure 2430
ated 2427
▁furniza 2425
▁specifice 2425
done 2422
▁committee 2420
▁activ 2419
▁participa 2419
▁următor 2419
▁Democratic 2417
▁rating 2417
▁26 2416
▁Rights 2416
▁Bruxelles 2413
▁considerat 2413
▁publică 2412
▁confirm 2411
▁organisations 2411
▁atinge 2410
▁requirements 2403
▁următoare 2403
▁businesses 2402
▁office 2401
▁părere 2401
▁valori 2398
▁Affairs 2397
▁săptămâni 2397
▁mediului 2396
▁plant 2396
▁numărul 2395
▁press 2395
▁person 2394
▁tip 2394
lal 2393
iere 2392
solid 2390
▁doing 2390
▁travel 2390
▁rea 2389
▁dispute 2388
▁numeroase 2387
tes 2385
▁securi 2381
iștii 2380
▁economia 2378
▁infrastructure 2377
▁left 2377
▁early 2376
ring 2375
▁idea 2374
▁statului 2374
▁U 2373
gere 2370
▁bulgar 2369
▁justice 2369
▁reacți 2369
▁First 2368
▁Mondial 2367
▁innovation 2367
sa 2362
▁product 2362
▁November 2361
▁considera 2357
mir 2355
▁questions 2354
▁bani 2351
▁flexibil 2351
▁service 2350
▁debt 2348
▁efficiency 2348
▁spoke 2348
țiunea 2346
țul 2345
▁Uni 2345
▁alternative 2345
▁grav 2345
▁societate 2345
▁arată 2343
▁success 2343
▁argument 2342
▁RS 2340
▁exerci 2339
▁Roma 2338
▁întâmpla 2338
▁won 2337
▁ceva 2334
▁fim 2333
dict 2332
▁water 2332
▁revi 2330
▁Western 2328
cep 2326
▁reasons 2325
O 2322
▁cheltuieli 2322
▁înregistrat 2322
▁provincie 2321
▁thing 2321
▁af 2318
▁develop 2317
▁task 2317
▁AFP 2315
▁Sud 2315
▁negative 2314
▁successful 2314
▁presu 2313
▁reached 2313
▁săptămâna 2311
▁term 2310
B 2306
▁decizia 2305
▁evenimente 2305
▁test 2304
/03/ 2302
▁structure 2301
▁har 2300
▁hard 2300
▁conclude 2299
▁farmer 2299
▁lucruri 2299
▁cont 2297
ură 2296
▁forces 2296
▁rămân 2295
ir 2293
ember 2292
▁fellow 2292
▁medium 2292
▁constructiv 2291
▁unit 2291
tate 2290
▁Ac 2290
▁reciproc 2289
▁consequences 2288
▁mijloc 2288
▁servicii 2288
▁longer 2286
▁Mac 2285
▁răspunde 2285
▁Dar 2284
▁Primul 2284
▁ban 2284
▁simplific 2284
▁500 2280
fort 2278
▁actions 2277
▁additional 2277
nica 2275
▁crede 2273
▁existing 2271
▁suspend 2270
year 2269
▁constru 2268
tice 2266
▁uma 2265
▁locui 2263
▁themselves 2263
▁umani 2263
▁OS 2262
▁fair 2262
▁ministrul 2261
adoption 2260
▁complex 2260
▁ultima 2259
▁faptului 2258
▁German 2257
▁network 2256
▁top 2256
▁keep 2255
▁producător 2253
▁întotdeauna 2252
▁aware 2251
▁produselor 2249
▁religi 2249
bs 2248
▁Representa 2246
▁sec 2246
▁Republica 2240
▁estima 2239
▁home 2239
▁forma 2236
▁2009. 2233
▁pregătit 2231
▁required 2231
▁above 2230
▁receive 2230
▁spera 2230
▁treat 2229
▁April 2227
▁scăzut 2227
▁might 2225
▁teme 2224
▁coming 2223
▁using 2222
zie 2220
▁Reh 2220
stru 2219
▁training 2219
▁îmi 2219
▁annual 2218
▁Yu 2216
▁application 2216
▁let 2216
emplo 2214
▁felicit 2213
▁extend 2212
▁quite 2212
oslav 2210
▁electoral 2210
▁answer 2207
▁încerca 2205
▁Austria 2204
ical 2202
▁animale 2202
▁highlight 2202
▁recently 2201
▁Marea 2200
▁Ver 2200
▁consulta 2200
▁genera 2199
▁poor 2199
▁trece 2196
▁prices 2195
EC 2194
▁external 2194
▁rezultat 2194
▁decided 2193
▁Însă 2192
ved 2191
▁urmări 2191
▁Moldova 2190
▁bănci 2190
▁opportunities 2190
ists 2187
▁Om 2187
▁campaign 2186
▁speak 2184
▁assessment 2183
▁Germany 2182
▁respectiv 2176
▁valoare 2176
▁putut 2173
▁pleased 2172
Ț 2171
▁Ko 2171
▁lideri 2170
▁Sunday 2169
▁festival 2169
▁hold 2167
ju 2166
onate 2165
▁domestic 2163
▁technical 2163
ler 2158
sufficient 2158
over 2155
ish 2153
▁mesaj 2153
▁ajutorul 2152
▁death 2149
▁muncii 2146
▁require 2146
▁viață 2144
▁apar 2143
▁true 2142
▁credibil 2139
▁proprii 2139
▁specula 2138
/11/ 2137
▁accesul 2137
▁leave 2137
▁ordine 2137
▁value 2136
enda 2135
▁departe 2135
▁gaze 2135
▁Guvernul 2134
▁observa 2134
▁resolve 2131
▁family 2130
▁link 2130
▁subsidi 2127
▁scop 2126
ding 2125
valu 2125
▁av 2124
▁partnership 2124
▁congratula 2122
▁serviciile 2121
▁July 2119
▁whose 2119
▁decis 2118
cr 2117
▁established 2115
▁proiectul 2115
mân 2113
▁bos 2113
/01/ 2112
izate 2111
ter 2109
▁Finally 2108
▁continu 2107
evski 2106
▁lips 2106
▁concentr 2103
▁stimul 2103
▁demonstra 2102
▁regionale 2102
ized 2101
▁previous 2101
▁Pac 2099
▁though 2099
/10/ 2098
vizi 2098
▁contact 2097
▁financ 2097
▁statistic 2097
▁dintr 2096
▁grave 2096
front 2095
▁diferen 2091
▁regulations 2091
▁tre 2091
▁efecte 2090
▁contain 2089
▁included 2087
▁vorbit 2087
▁certainly 2086
▁normal 2086
/12/ 2085
/04/ 2084
▁steps 2084
▁suggest 2084
val 2082
▁deveni 2082
▁throughout 2082
▁Și 2082
▁Czech 2080
ising 2079
▁P 2079
▁închis 2079
▁singur 2078
▁attempt 2076
▁reported 2076
▁carried 2075
▁feel 2075
▁asked 2074
▁2010, 2073
by 2072
num 2072
▁oil 2072
itudine 2071
▁Agen 2071
▁affect 2071
▁stage 2071
▁little 2069
▁noul 2069
▁Festival 2067
▁En 2066
▁sitting 2065
▁National 2064
▁az 2063
mânt 2062
▁2008, 2061
▁grec 2060
▁concept 2059
▁militar 2059
ătorul 2058
▁aceeași 2058
▁supraveghere 2058
▁effort 2056
edo 2055
▁France 2055
▁biro 2055
ture 2054
▁ob 2054
▁ultimele 2054
▁acolo 2053
▁intermediul 2052
▁voice 2052
▁broad 2051
▁complete 2051
▁All 2050
▁quickly 2049
cade 2048
▁apă 2048
▁read 2048
tică 2045
▁sign 2045
sman 2044
▁High 2044
▁los 2044
cină 2042
dor 2041
▁affected 2041
▁movement 2041
▁pericol 2041
▁alimente 2040
▁ministr 2039
PT 2038
ime 2037
▁cuvinte 2037
▁jumătate 2037
▁prioritat 2037
▁terror 2033
▁wa 2032
▁medical 2031
▁speech 2031
▁Reg 2030
▁pierde 2030
based 2029
▁brought 2029
rei 2028
▁Portugal 2028
▁Italy 2026
▁sexual 2026
▁Ad 2024
▁everyone 2024
▁oferit 2023
▁outside 2021
▁suspect 2021
▁comp 2020
▁committed 2019
▁effect 2018
▁refuz 2018
ught 2017
Y 2016
▁follow 2014
▁vice 2014
tat 2013
▁Internet 2013
▁carry 2013
▁crescut 2012
▁February 2011
▁Organiza 2010
▁transparent 2010
▁CE 2007
▁language 2006
▁author 2005
cări 2004
▁huge 2004
▁nimic 2004
▁After 2003
▁Să 2003
▁condi 2003
▁Acum 2002
▁Așa 2001
▁Dj 2001
▁levels 2001
▁price 2001
/09/ 1999
ely 1999
▁furniz 1999
▁led 1998
▁Athen 1997
dy 1996
▁naturale 1995
▁așteaptă 1992
▁offer 1991
▁pred 1988
▁200 1986
▁culture 1986
▁partners 1986
▁prosper 1985
▁Vo 1984
▁american 1983
▁element 1983
▁supply 1983
duction 1981
▁suger 1981
▁Bu 1980
vin 1978
▁civile 1978
▁deci 1978
▁refugi 1978
▁resurs 1978
▁Securitate 1977
▁chief 1976
▁exchange 1974
▁function 1973
▁păcate 1973
▁appro 1972
▁întreb 1971
/02/ 1969
x 1969
▁alle 1967
▁goal 1966
▁makes 1965
mine 1964
ura 1963
▁persoanele 1963
/07/ 1962
▁Du 1961
▁29 1960
▁printr 1960
tâ 1959
▁enter 1959
▁ten 1958
quality 1957
▁lansat 1957
▁mention 1957
economic 1956
▁laws 1956
▁T 1955
▁ni 1955
unica 1954
▁Georgi 1954
▁motion 1954
▁almost 1953
▁came 1953
▁Plan 1952
▁September 1952
▁providing 1952
▁agri 1951
▁contro 1951
▁improvement 1951
posed 1950
▁Gre 1949
▁exact 1948
▁agricole 1946
▁thu 1946
islav 1945
▁While 1945
el 1944
ica 1944
▁Second 1944
▁auto 1944
▁weeks 1944
▁ultimul 1943
▁Article 1942
▁low 1942
agriculture 1941
▁Hungari 1941
▁prezen 1941
▁serve 1941
▁știri 1941
gr 1939
ka 1939
rise 1937
F 1936
our 1935
▁everything 1934
▁leg 1934
▁relevant 1932
▁When 1930
▁petrol 1930
just 1927
▁communication 1927
▁mind 1925
▁inclus 1924
▁basic 1923
▁respecta 1923
2 1922
▁evolu 1922
▁Curtea 1921
20 1920
▁copii 1920
▁afara 1918
▁construction 1918
▁nothing 1918
lay 1915
▁serviciilor 1914
▁vota 1914
dica 1912
ghe 1912
ita 1912
▁elaborat 1912
ki 1911
▁pregăti 1911
bia 1910
▁mission 1909
▁Washington 1908
▁presă 1908
▁Sara 1907
▁destinat 1906
▁efficient 1906
▁2011 1905
▁penal 1904
▁gestion 1903
ES 1902
▁film 1898
Mu 1896
▁presente 1896
▁spațiu 1896
▁administration 1894
▁introducere 1894
▁monitoring 1894
iile 1892
ek 1891
▁duminică 1891
▁monetar 1890
▁tineri 1890
▁suplimentare 1889
▁Fur 1888
▁begin 1888
âng 1887
▁behind 1887
ating 1886
▁later 1885
▁sincer 1885
NL 1884
▁permis 1884
▁programul 1883
▁turn 1883
▁2010. 1882
▁devină 1882
▁Banca 1881
▁creating 1881
▁purpose 1880
▁Me 1879
▁ministru 1879
▁relation 1879
▁dem 1877
▁indeed 1877
▁publica 1877
▁ambele 1876
▁ground 1876
day 1875
▁Germania 1875
▁approved 1875
▁cover 1875
▁industria 1875
▁wide 1875
▁Hai 1873
▁closed 1873
▁tack 1873
nez 1872
▁capabil 1872
▁încerc 1872
▁mijloace 1871
▁împrumut 1871
ex 1870
use 1869
▁figure 1867
▁absolut 1865
▁recomandă 1865
▁treatment 1865
▁ever 1864
▁niciodată 1864
▁lângă 1859
▁payment 1858
▁rest 1858
rp 1854
vol 1852
▁build 1852
▁Georgia 1851
▁siguran 1850
bord 1849
▁materie 1849
▁solutions 1848
▁viața 1848
▁Iraq 1847
▁boost 1846
torului 1845
▁lipsa 1844
▁migra 1844
▁copiilor 1843
▁Papa 1842
▁capacity 1842
▁improving 1842
▁precise 1841
Mont 1840
zii 1838
cing 1836
▁Vice 1836
▁name 1835
▁schimbare 1835
su 1834
▁realitate 1834
▁zece 1834
▁doubt 1833
▁events 1833
▁talking 1832
▁legat 1831
▁Although 1830
▁40 1829
▁Alliance 1829
▁discurs 1829
▁light 1822
zia 1821
▁Friday 1819
▁treilea 1818
zând 1816
▁Ministru 1816
▁exercit 1816
▁electronic 1815
drept 1814
▁conduce 1814
▁încet 1814
▁20% 1813
▁Our 1813
▁lege 1813
▁entire 1811
▁beneficia 1809
▁existente 1809
▁ple 1809
labor 1808
▁ahead 1808
▁organisation 1807
▁descri 1806
▁determina 1806
RO 1805
▁achiziți 1805
▁ready 1804
▁promise 1803
▁rein 1803
den 1802
▁Astfel 1801
▁aspects 1801
▁Russian 1800
bilitate 1799
▁Italia 1799
▁ajung 1799
▁statul 1799
92 1797
▁duce 1797
▁higher 1797
▁message 1796
▁Ireland 1795
▁munca 1794
▁teritoriul 1794
vad 1793
LEX 1792
vision 1791
▁macro 1791
pie 1789
▁damage 1789
▁pensi 1788
▁teror 1788
▁although 1786
ny 1785
more 1784
▁R 1784
▁prison 1783
pu 1782
▁Ur 1782
▁uit 1780
▁Pakistan 1779
while 1776
▁2006 1776
▁cereri 1776
▁Gul 1775
▁mass 1775
▁luptă 1774
▁procedura 1774
ături 1772
▁2007 1772
cco 1771
▁conveni 1771
▁coordina 1771
gy 1769
▁challenge 1768
▁apoi 1766
▁ofere 1766
▁Autor 1765
▁diverse 1765
▁trial 1764
lement 1763
11 1762
▁My 1762
▁produsele 1762
ap 1761
▁EC 1761
▁apărare 1761
▁teh 1761
▁dator 1760
▁earlier 1759
▁mini 1759
mite 1758
▁refuge 1757
▁mei 1756
▁repeat 1755
▁Cur 1754
▁turism 1754
▁agricol 1753
▁întâlnire 1753
▁history 1752
▁afecte 1751
▁south 1747
▁Drept 1746
▁Național 1746
▁accepta 1745
tory 1742
▁Vest 1740
▁avantaj 1740
▁decisiv 1740
▁ratifica 1740
▁respective 1740
▁august 1739
▁lot 1739
▁noua 1739
▁circula 1737
force 1736
▁Justice 1736
prinz 1735
▁accident 1735
▁excellent 1735
▁II 1734
▁asyl 1734
▁includes 1734
▁Av 1733
▁ir 1733
▁cut 1732
▁difference 1732
▁datelor 1729
▁direction 1729
jan 1728
▁ambiti 1728
▁31 1727
▁Human 1727
▁unii 1727
rious 1726
▁Bar 1726
▁capăt 1726
▁conserva 1726
▁fail 1725
cre 1723
▁half 1722
În 1721
▁accent 1721
▁rapor 1721
▁popular 1719
▁benefits 1718
torul 1717
▁old 1717
▁cauză 1716
▁effects 1716
▁opened 1716
▁reforma 1716
▁Some 1715
▁vin 1715
▁origin 1714
▁considered 1712
▁app 1711
▁Tunis 1710
amente 1709
▁lives 1709
M 1708
tena 1708
▁întâmplă 1708
▁created 1707
▁quote 1706
▁obtain 1704
▁recunoscut 1704
ku 1703
▁prose 1703
EP 1702
▁promova 1702
feri 1701
ously 1701
▁Per 1701
▁tell 1701
cat 1700
pta 1700
▁coast 1700
dică 1699
▁demonstr 1697
▁provides 1697
▁merit 1695
▁possibility 1695
▁Just 1694
▁eficiente 1694
când 1693
▁wants 1692
▁ajut 1691
▁radio 1690
▁proprie 1688
ismul 1687
▁attend 1687
▁shown 1685
▁leading 1683
▁oamenilor 1683
▁strategia 1683
▁dicta 1679
▁accepte 1677
▁speaker 1677
▁experience 1676
ions 1675
▁age 1673
▁destul 1673
▁învăț 1673
up 1672
▁beginning 1671
▁putere 1671
▁Er 1670
▁producer 1670
▁rezultatele 1669
▁ridic 1669
guard 1668
▁lan 1667
▁obsta 1667
tourism 1666
▁articolul 1665
▁reprezentant 1665
▁entry 1663
▁Now 1661
▁dificult 1661
▁veci 1661
▁sense 1660
ians 1658
▁tocmai 1658
▁IMF 1657
▁confidence 1657
▁semnal 1656
▁strâns 1656
ad 1655
▁analiz 1655
▁exist 1655
▁sud 1655
▁fraud 1653
▁influence 1653
▁St 1652
▁Libya 1651
▁asigurarea 1649
▁humanitar 1649
▁opening 1649
▁Pa 1648
▁est 1648
10 1647
ana 1647
▁aplicat 1647
▁completely 1647
kovski 1646
rat 1646
tur 1645
▁micro 1645
▁correct 1643
▁angajați 1642
▁origine 1639
It 1638
▁vineri 1637
arte 1636
via 1636
▁încearcă 1634
▁Last 1633
▁Ukraine 1633
▁prepared 1633
▁Di 1632
▁away 1632
▁prezenta 1632
▁shall 1632
▁Nord 1631
▁temporar 1631
▁folosi 1628
▁rezultatul 1628
▁harmoni 1627
▁impozit 1627
tei 1626
zat 1626
▁Ah 1625
▁istoric 1625
▁late 1625
▁Of 1624
▁reporter 1624
▁serviciu 1623
dan 1622
atlan 1621
▁investigation 1621
▁trying 1621
▁ap 1620
▁mo 1620
▁pri 1619
▁Stra 1618
▁2007, 1617
▁absolutely 1616
▁man 1616
▁seems 1616
▁știu 1616
▁Secretary 1615
▁mis 1615
▁văzut 1615
▁defend 1614
▁union 1614
▁Can 1613
▁Strategi 1612
▁compensa 1612
abilitatea 1611
▁caused 1610
▁celelalte 1609
▁America 1608
▁dne 1608
▁prezintă 1608
ify 1607
pa 1607
w 1607
▁People 1607
▁Zoran 1607
▁incident 1607
▁recovery 1607
▁capacitatea 1605
▁călători 1605
▁near 1605
guvernamental 1604
vica 1604
▁rezerv 1604
▁calling 1602
▁hon 1602
▁puteri 1602
▁violation 1602
▁participation 1601
▁cal 1600
▁cărora 1600
▁eliminare 1600
▁elabora 1599
▁effectively 1598
▁loan 1598
ror 1597
▁Action 1597
▁Canada 1597
▁Centre 1596
tura 1595
▁carbon 1595
meni 1593
▁german 1593
saari 1592
▁Trans 1592
▁Salut 1591
▁dă 1591
▁either 1591
▁Z 1590
▁baze 1589
PA 1588
▁camp 1588
▁capac 1588
▁familii 1588
▁politicieni 1588
▁suferi 1587
hood 1584
▁continent 1584
▁gain 1584
▁religious 1584
▁News 1583
▁remarc 1583
▁try 1583
pro 1581
▁deep 1579
▁practică 1579
▁textil 1579
hi 1578
▁2004 1578
▁agencies 1578
▁prevăzut 1578
▁Tribunal 1577
▁instead 1577
07 1576
▁fall 1576
▁Liber 1575
▁Inter 1574
▁premier 1573
▁seama 1573
▁căreia 1572
▁globale 1572
▁determine 1571
▁garan 1570
izată 1569
▁And 1567
▁raise 1567
▁respond 1567
▁centrul 1566
▁green 1566
▁record 1566
▁afla 1565
▁agency 1565
▁failed 1565
mar 1563
nat 1563
▁experts 1562
▁mark 1562
▁comprehensive 1561
lateral 1560
nim 1560
▁formare 1560
▁perhaps 1560
▁takes 1560
09 1559
aging 1559
irii 1558
▁gen 1558
▁paid 1558
▁por 1558
iva 1557
▁lucrurile 1557
▁Declara 1556
▁block 1556
ât 1555
▁burde 1555
ification 1554
izeze 1554
șu 1554
▁Today 1553
▁aims 1553
▁creat 1553
str 1552
... 1551
part 1551
▁city 1551
eign 1550
teri 1550
▁Sol 1550
oarele 1549
tiunea 1549
▁excelent 1549
▁bi 1548
fica 1547
▁colleagues 1547
▁ocupă 1546
▁tri 1545
olog 1544
▁separate 1543
▁Director 1542
▁finally 1542
▁taxe 1542
▁arme 1540
▁bărbați 1540
▁caracter 1540
▁mun 1540
▁reality 1539
▁realiz 1539
ber 1538
▁reguli 1537
rian 1535
▁developed 1535
▁adapt 1534
▁alimentar 1534
▁French 1533
jo 1532
▁defini 1532
▁distribu 1530
▁clare 1529
▁formula 1529
▁During 1528
▁applied 1527
▁passen 1527
▁BBC 1526
▁conducere 1526
▁minimum 1526
▁Mediterrane 1525
▁abuz 1525
▁worth 1525
▁altele 1524
▁overall 1524
▁requires 1524
verse 1523
▁înlocui 1523
MM 1522
▁em 1522
▁realiza 1522
G 1521
▁ideea 1521
▁opt 1521
▁largest 1520
▁prevenire 1520
▁run 1520
▁ușor 1520
▁șapte 1520
▁bal 1518
▁self 1518
▁extra 1517
▁informa 1517
▁trăi 1515
side 1514
▁impus 1514
▁ver 1513
▁repe 1511
▁British 1510
▁daily 1510
▁shows 1510
toria 1509
▁câ 1509
cea 1508
nici 1508
stre 1508
▁strategi 1508
▁urban 1508
EL 1507
Nu 1507
nut 1507
▁paci 1506
▁restri 1506
▁zonă 1506
05 1505
▁L 1505
▁structuri 1505
viden 1503
▁tomorrow 1503
▁pierdut 1502
▁communities 1501
▁Nikola 1500
▁child 1499
▁culturale 1499
▁funcție 1499
▁militare 1499
▁Also 1497
▁Cop 1496
▁presiden 1496
rs 1495
▁multor 1495
▁Mar 1494
▁mutual 1494
▁prese 1494
▁wanted 1494
▁elemente 1493
▁legi 1493
▁send 1493
▁giving 1492
▁măr 1492
▁Cooper 1491
▁favor 1491
▁ourselves 1491
ciu 1490
▁lumii 1490
GDP 1489
▁documents 1489
▁adesea 1488
lling 1487
▁Irlanda 1487
stro 1485
▁enorm 1485
▁legii 1485
down 1484
▁town 1483
Va 1482
liber 1481
new 1481
▁known 1481
▁raised 1481
▁suffer 1481
▁Sea 1480
▁connection 1480
▁greu 1480
▁H 1478
▁failure 1478
▁fear 1478
▁Bulgari 1477
▁Deci 1477
▁USD 1477
veni 1476
▁britanic 1476
▁femeile 1476
atoare 1474
▁Hungary 1474
▁parlamentare 1474
izat 1473
▁Under 1473
▁vorbim 1472
▁Brazil 1471
▁land 1471
▁happen 1470
mely 1469
▁Mit 1467
▁rămas 1466
06 1465
▁anterior 1465
▁următoarele 1465
tatea 1463
▁technology 1463
▁Many 1462
▁Partner 1462
▁consensu 1462
▁Dez 1461
▁tro 1459
sem 1458
▁George 1458
▁acela 1458
▁includ 1458
▁nature 1458
▁terrorist 1458
ger 1456
▁sanc 1456
▁spirit 1456
ping 1454
▁modificări 1453
04 1452
▁Trade 1451
▁coordinat 1451
▁reduc 1451
▁conflicte 1450
▁remind 1450
▁constant 1449
▁datorită 1449
HU 1448
▁alimentare 1448
▁sover 1448
Es 1447
reducing 1447
▁2002 1447
▁centrale 1447
fortuna 1446
▁evita 1446
▁mâ 1446
▁vechi 1446
▁cabinet 1445
▁lost 1445
▁path 1445
▁recente 1444
bly 1442
▁2008. 1442
▁Je 1442
▁analiza 1442
▁energia 1441
▁tehnologii 1441
▁Buch 1440
▁beyond 1439
▁planifica 1439
▁prefer 1439
▁signal 1439
haga 1438
▁cata 1437
▁income 1437
▁Copenhagen 1436
▁Irak 1436
▁60 1435
▁ICT 1435
▁charge 1434
▁transition 1434
▁families 1433
▁journalist 1433
▁cheltui 1428
▁likely 1428
▁teren 1428
▁Bă 1427
▁aduc 1427
long 1426
▁Suntem 1425
▁fiscale 1424
▁gesti 1424
▁Tha 1423
▁deliver 1423
▁dezvoltat 1423
▁gaz 1423
▁province 1423
▁degrabă 1422
▁vârstă 1422
▁echipa 1420
▁heard 1420
▁related 1420
▁formă 1419
▁echilibru 1418
▁nevoia 1418
per 1417
▁mân 1417
▁prezi 1417
min 1416
▁abandon 1416
▁Association 1415
▁disease 1415
▁300 1414
▁dorit 1414
▁India 1413
▁calitatea 1413
ces 1412
▁concentrat 1412
▁started 1412
ev 1411
preocup 1411
sive 1411
▁North 1411
▁cause 1410
abili 1409
iu 1408
▁baz 1408
▁forum 1408
▁secret 1408
ke 1407
▁CO 1407
▁trust 1407
▁prospect 1406
▁adus 1405
▁indi 1405
ran 1404
▁allowed 1403
▁choice 1403
▁integrar 1403
▁property 1403
▁simple 1403
▁Progres 1402
▁thanks 1402
CP 1400
▁introdu 1400
European 1399
ski 1399
▁arătat 1397
▁informare 1397
▁totul 1397
▁adequat 1396
▁Christian 1395
▁react 1395
▁PIB 1394
▁add 1394
ably 1393
dez 1393
iv 1393
nis 1393
▁cunoscut 1393
▁secure 1393
▁francez 1392
iza 1391
▁Day 1391
immigration 1390
▁puse 1389
itet 1388
▁PKK 1388
▁acoperi 1388
▁eveniment 1388
▁proper 1388
▁initial 1386
▁sine 1386
nci 1385
▁Conform 1385
▁formal 1385
asă 1384
call 1384
▁României 1384
▁construi 1384
▁convince 1384
▁invita 1384
▁organ 1384
SET 1383
▁lower 1383
▁merge 1382
▁organism 1382
▁Toate 1380
▁indiferent 1380
▁looking 1379
▁sensibil 1379
▁mii 1378
▁study 1378
▁Market 1377
▁stake 1377
▁tend 1376
7 1375
geri 1375
▁declare 1375
08 1374
bo 1374
▁erau 1374
▁Since 1373
han 1371
▁programe 1371
▁dreptate 1370
▁folosit 1370
vention 1369
chie 1368
▁reitera 1368
▁Sana 1367
▁bid 1367
▁Demo 1366
▁radical 1366
▁Î 1366
▁Liberal 1365
▁activity 1365
▁big 1365
▁Tot 1363
charge 1361
ained 1360
lines 1360
rul 1360
▁growing 1360
▁Film 1359
▁misiune 1359
▁vrea 1359
▁intended 1358
▁Energy 1357
▁citat 1357
▁Cri 1356
▁Ex 1356
▁er 1356
▁format 1356
▁remember 1356
▁reduceri 1355
Di 1354
scope 1353
table 1353
▁coleg 1353
reje 1352
tak 1352
▁How 1352
▁Ucraina 1352
▁round 1352
ible 1350
▁scientific 1350
▁seven 1350
▁bear 1349
way 1348
▁commercial 1348
▁plena 1348
▁recommend 1348
▁actor 1347
cole 1346
▁reale 1346
▁Cel 1345
▁item 1345
tis 1343
▁Dan 1343
▁alternativ 1343
▁occur 1343
▁Thank 1341
▁maghiar 1340
▁consistent 1339
▁scar 1338
▁victor 1338
▁București 1337
▁Convention 1337
▁Green 1337
▁Gru 1337
▁bancar 1337
▁banii 1337
▁rus 1337
▁suve 1337
▁vulnerabil 1337
▁rom 1336
▁asocia 1335
▁nor 1335
gi 1334
▁diferit 1334
▁proceed 1334
▁award 1333
pre 1331
▁premi 1331
nul 1330
▁idei 1330
▁admit 1329
▁intention 1329
▁num 1328
▁sustain 1328
▁tele 1328
▁Rule 1327
▁lucrează 1327
▁lă 1326
▁transmite 1326
▁valor 1326
▁Srebr 1325
▁enhance 1325
▁mele 1325
▁thousands 1325
aint 1323
▁becoming 1323
▁code 1322
▁continues 1322
▁recon 1321
▁Tra 1320
▁c 1320
▁chance 1320
▁ways 1319
graphic 1318
▁depinde 1317
▁indicate 1317
▁proiectului 1317
▁transforma 1317
biodiversi 1315
cur 1315
▁149 1315
▁latest 1315
▁appeal 1314
▁define 1314
▁sport 1314
▁văd 1314
▁Lu 1313
ner 1312
▁Po 1312
▁modifica 1312
▁indicator 1311
▁Za 1310
▁comunicare 1310
▁concedi 1310
▁recognition 1310
▁accordance 1309
▁practical 1309
▁promove 1309
▁restrict 1309
nem 1308
▁complicat 1307
▁directly 1307
▁întâi 1306
ologic 1305
ach 1304
mission 1304
▁ocazia 1304
▁school 1304
▁oral 1303
▁abuse 1301
▁animal 1301
▁col 1301
▁scandal 1301
bate 1300
▁Drag 1300
▁chair 1300
▁don 1300
▁claim 1299
▁confrunta 1298
▁Conven 1296
▁agricultor 1296
▁consideration 1296
▁operator 1296
verti 1295
▁2011. 1294
▁distrug 1294
▁island 1293
▁mon 1293
▁pozitive 1292
cic 1291
gen 1291
▁fire 1291
▁1990 1290
▁AKP 1290
▁knowledge 1290
▁2020. 1289
▁Britani 1289
▁solve 1289
du 1288
▁mediul 1288
▁parlamentar 1288
▁submitted 1288
▁săptămână 1287
▁Centrul 1286
▁negocia 1285
▁online 1285
▁plas 1285
▁provoca 1285
T 1284
▁August 1284
ente 1283
out 1283
▁retra 1283
▁legea 1282
▁partner 1282
▁tem 1282
mic 1281
▁legitim 1281
▁respecte 1281
itoare 1280
▁note 1280
▁programa 1280
▁upon 1280
▁Print 1278
▁Ungaria 1278
▁advantage 1278
▁immediately 1278
▁realizarea 1278
▁patients 1277
appoint 1276
eren 1275
▁Deput 1275
mit 1274
▁critical 1274
▁realist 1273
▁followed 1272
▁infla 1272
▁intend 1272
gos 1271
▁acel 1271
▁generale 1271
▁stimula 1271
▁publicat 1270
▁transform 1270
▁Gaza 1269
pol 1268
▁lec 1268
▁perioade 1268
▁prezid 1268
▁recommendations 1268
▁tratament 1268
▁presupune 1267
central 1266
▁intervention 1266
▁territor 1265
sic 1264
▁Cer 1264
▁circumstances 1264
▁exercise 1264
▁numit 1264
▁simpli 1264
lul 1263
versa 1263
▁enti 1263
▁Radi 1262
▁imagine 1261
bud 1260
▁SM 1260
▁sanction 1260
▁wrong 1260
▁examina 1259
▁volunt 1259
employed 1258
▁2005 1258
▁highest 1258
▁Go 1257
▁menit 1257
▁emerge 1256
▁Ja 1255
▁ieși 1255
▁pil 1255
▁solid 1254
▁rates 1253
▁profund 1252
▁Ivo 1251
▁familie 1251
▁supliment 1251
CR 1250
fice 1250
gers 1250
▁Programme 1250
▁Spain 1250
▁informe 1250
▁târziu 1250
▁alături 1249
▁circum 1249
▁proc 1249
▁judicial 1248
FT 1247
rd 1247
▁session 1247
▁Tayyip 1246
▁democrat 1245
ede 1244
▁intensifica 1244
▁performance 1243
▁succeed 1243
▁examine 1242
▁extraordinar 1242
▁produs 1242
LT 1241
▁Albani 1241
▁evaluat 1241
▁protocol 1241
▁voturi 1241
media 1240
▁Recep 1240
▁informat 1240
▁matern 1240
zice 1239
▁Olympic 1239
▁alone 1239
▁goals 1239
▁mas 1238
▁parts 1238
▁assess 1237
▁span 1237
ace 1236
pr 1235
sele 1235
▁convins 1235
▁depend 1235
▁dove 1235
▁hit 1235
▁outcome 1235
ania 1234
pt 1234
▁Chamber 1234
▁Stabil 1234
ceni 1233
▁asuma 1233
▁eight 1232
▁genuin 1232
▁Unfortunately 1231
come 1230
▁slab 1230
turile 1229
▁2004, 1229
ator 1228
rate 1228
▁authority 1228
▁Global 1227
▁comanda 1226
▁custom 1226
▁Asia 1224
▁rez 1224
inte 1223
preci 1223
▁ta 1223
edi 1222
pay 1222
▁Be 1222
▁lovit 1222
▁2006, 1221
ud 1220
▁sett 1220
obstacle 1218
▁Italian 1218
▁compara 1218
ward 1217
▁Egypt 1217
ded 1216
▁Nikol 1216
▁cap 1216
▁opinii 1216
▁propri 1216
▁teritorial 1216
erien 1215
for 1215
▁der 1214
▁judge 1214
▁trăiesc 1214
▁venituri 1214
ici 1213
▁commission 1213
▁măsura 1213
▁periculo 1213
▁sold 1213
curs 1212
▁extins 1212
▁staff 1212
▁technologies 1212
my 1211
▁topic 1211
▁count 1210
▁planned 1210
▁critica 1209
▁seriously 1209
fy 1208
▁30% 1208
▁apropiere 1208
▁satisfac 1208
▁medicamente 1207
▁replace 1207
▁concert 1206
▁speed 1206
uc 1205
▁Unit 1205
▁investor 1205
▁setting 1205
▁ones 1204
rail 1203
▁began 1203
▁American 1202
▁voter 1201
ier 1200
▁Service 1200
▁acknowledge 1200
▁investitor 1200
▁PP 1199
public 1198
zare 1198
▁trimis 1198
tage 1196
▁2011, 1196
▁forme 1196
▁ocazie 1196
ped 1195
▁clădiri 1195
▁profesional 1195
▁professional 1195
▁She 1194
▁conținut 1194
▁severe 1194
▁activitate 1193
▁Spanish 1192
▁cunoaște 1192
▁Rat 1191
▁ante 1191
▁sentence 1191
▁Is 1190
▁Si 1190
als 1189
▁Even 1189
▁N 1189
▁dealing 1189
▁modal 1189
▁starting 1188
▁word 1188
▁10% 1187
▁biggest 1187
▁legitima 1187
▁nearly 1187
▁presiune 1187
▁average 1186
▁original 1186
biec 1185
stern 1185
▁Cor 1185
▁extent 1185
▁murder 1185
▁acceptat 1184
▁precedent 1184
▁român 1184
ificare 1183
▁Secret 1183
bun 1182
car 1182
▁negativ 1181
▁renunț 1181
▁auzit 1180
light 1179
kov 1178
▁Sus 1178
▁sala 1178
ru 1177
▁Fa 1177
▁Rado 1177
▁sent 1177
▁limited 1176
▁manner 1176
▁sea 1176
stat 1175
▁evidence 1175
▁serios 1175
▁site 1175
▁forget 1174
eurs 1173
▁singura 1173
▁Public 1172
▁culturi 1172
▁salarii 1172
▁1. 1171
▁2. 1171
▁Prim 1171
▁Până 1171
▁acuzat 1171
▁highly 1171
mbr 1170
vor 1170
▁Cum 1170
▁candida 1170
▁regulator 1170
▁goes 1169
▁pede 1169
▁ajută 1168
▁aprob 1168
ajul 1167
▁ho 1167
▁sarcini 1167
pendi 1166
▁Media 1166
▁Stat 1166
▁expression 1166
▁mix 1166
▁series 1166
▁War 1165
▁firme 1165
▁Agri 1164
▁Astăzi 1164
▁vorbi 1164
viz 1163
▁Muslim 1163
▁unilateral 1163
▁Voj 1162
▁recunosc 1162
▁helping 1161
▁farm 1160
qui 1158
cular 1157
▁găsit 1156
▁managed 1156
▁terorist 1156
▁Turk 1155
▁fighting 1155
▁copiii 1154
▁scheme 1153
This 1152
▁găzdui 1152
▁mică 1151
▁ali 1150
▁bad 1150
▁lup 1150
▁trimite 1150
fil 1149
cum 1148
spre 1148
▁immediate 1148
▁para 1148
ioară 1147
▁content 1147
▁diversi 1147
▁gives 1147
▁York 1146
▁prezentate 1146
▁genocid 1145
▁orienta 1145
▁particip 1145
dre 1144
ord 1143
▁charges 1143
▁inaugura 1143
ari 1142
▁Other 1142
▁Orient 1141
▁condition 1141
▁disponibile 1141
▁justifica 1141
▁medicale 1141
▁specifically 1141
cer 1140
▁Noi 1140
▁cercetări 1139
▁dovedit 1139
▁Igor 1138
▁operate 1138
▁fo 1136
▁leadership 1136
▁push 1136
▁officer 1135
▁analys 1134
▁vân 1134
cent 1133
▁Luka 1133
▁digital 1133
▁Au 1132
▁parcursul 1132
▁Radio 1131
put 1130
▁gă 1130
▁relationship 1130
▁stock 1130
03 1129
istic 1129
voi 1129
EE 1128
▁Obama 1128
▁confirmat 1128
▁expert 1128
▁host 1128
▁Chiar 1127
▁Summit 1127
▁interesat 1127
▁Policy 1126
▁Strasbourg 1126
▁universal 1126
ncies 1125
▁Poland 1125
▁autonom 1125
▁forced 1125
▁oare 1125
shed 1124
▁Cei 1124
▁Fat 1124
▁Afghanistan 1123
▁lucrări 1123
▁planning 1123
lia 1122
▁properly 1122
Ac 1121
grin 1121
mo 1121
▁determinat 1121
▁spending 1121
▁consultation 1120
▁dramatic 1120
▁perspectiva 1120
▁Amb 1119
▁Berisha 1119
▁cod 1119
▁ste 1119
sens 1118
▁echilibrat 1118
▁tehnice 1118
▁vine 1118
RS 1117
▁Popular 1117
▁odată 1117
▁spent 1117
▁affair 1116
▁check 1116
EU 1115
ors 1115
▁Jan 1115
▁happened 1115
▁km 1115
▁mări 1114
▁ongoing 1114
râ 1112
▁explain 1112
▁vedem 1112
▁vreme 1112
road 1111
▁1999 1111
▁angajat 1111
▁musulman 1111
▁resto 1111
▁territorial 1111
rie 1110
▁celui 1110
▁primele 1110
▁încercat 1110
sen 1109
▁dob 1109
▁elements 1109
▁toto 1109
ats 1107
▁Dezvoltare 1106
▁accu 1106
▁adopta 1105
▁substantial 1105
▁heart 1104
▁whom 1104
▁Act 1103
▁generation 1103
▁bringing 1102
▁label 1102
▁vorbe 1102
SK 1101
alt 1101
los 1101
▁Monte 1101
▁anticipat 1101
▁insu 1101
▁port 1101
▁propria 1101
▁păstra 1101
▁Mes 1100
▁depende 1100
▁house 1100
oglu 1099
▁Directiva 1099
▁Mul 1099
▁amin 1099
ounce 1098
▁body 1098
▁judecător 1098
▁închisoare 1097
dors 1096
▁metode 1096
slav 1095
▁regular 1095
▁sta 1095
▁ur 1095
▁views 1095
tives 1094
▁35 1094
▁Spania 1094
plau 1093
▁companiilor 1093
▁hi 1093
Ceea 1092
▁Ministry 1092
▁Est 1091
▁rat 1091
▁presi 1090
▁Saturday 1089
▁sesi 1089
boli 1088
cili 1088
▁50% 1088
▁singură 1088
▁African 1087
▁ful 1087
▁procent 1086
▁civili 1085
▁evit 1085
▁justifi 1083
▁orient 1083
▁speciale 1083
▁începând 1083
▁Irish 1082
▁Cea 1081
President 1080
▁pipe 1080
▁tinerilor 1080
▁willing 1079
▁apropiat 1078
▁numerous 1078
ala 1077
ieni 1077
oarelor 1077
▁Afganistan 1077
▁minim 1077
▁Parte 1076
▁break 1076
▁primă 1076
▁cura 1075
ria 1074
▁armoni 1074
▁avia 1074
▁cur 1074
gre 1073
▁Kurd 1073
▁Palestin 1073
▁Sudan 1073
▁enjoy 1073
▁station 1073
▁400 1072
▁curent 1072
▁fuel 1072
leg 1071
ses 1071
▁continued 1071
▁finaliza 1071
▁deputat 1070
▁suficiente 1070
▁înțeles 1070
▁Investi 1069
▁bureau 1069
▁published 1069
▁Anna 1068
▁asking 1068
▁del 1068
▁diploma 1068
▁rata 1068
1 1067
In 1067
▁Rom 1067
▁equipment 1067
▁separat 1067
9% 1066
plo 1066
rio 1066
▁Inde 1066
▁die 1066
▁dus 1066
▁reconstru 1066
▁tehnologie 1066
unda 1065
▁Monet 1065
▁cancer 1065
roga 1064
▁adding 1064
▁Nations 1063
▁transaction 1063
▁Baltic 1062
▁perform 1062
uria 1061
▁2007. 1061
▁indica 1061
4% 1060
▁repede 1060
▁via 1060
▁works 1060
▁Cam 1059
▁finding 1059
▁jurnal 1059
licit 1058
▁Van 1058
▁r 1058
▁um 1058
isia 1057
▁assist 1057
▁inclu 1057
▁migration 1057
port 1056
▁bio 1056
▁rog 1056
prins 1055
trage 1055
▁Middle 1054
▁tarif 1054
▁alarm 1053
ering 1052
ight 1052
▁Vom 1052
▁students 1052
▁win 1052
DP 1051
▁2005, 1051
▁scădere 1050
▁tradițional 1050
▁ansambl 1049
▁seeking 1049
▁Eu 1048
▁Stan 1048
▁pregătire 1048
▁Cele 1047
▁Cre 1047
▁jucat 1047
▁presence 1047
▁campanie 1046
▁opinie 1046
fa 1045
▁individuale 1045
▁ore 1045
▁reference 1045
6% 1044
coli 1044
▁weapon 1044
▁worked 1044
▁passed 1043
des 1042
▁Slobo 1042
ops 1041
▁ability 1041
▁comments 1041
▁nimeni 1041
cina 1040
ziona 1040
▁Serviciul 1040
▁substance 1040
lis 1039
sters 1039
vis 1039
ying 1039
▁propor 1039
▁puterea 1039
▁tourist 1039
▁traditional 1038
tre 1037
▁Su 1037
▁organiz 1037
▁stay 1037
▁NGO 1036
▁restriction 1036
▁riscuri 1036
▁scrutin 1036
▁Nou 1035
▁nation 1035
▁probably 1035
▁te 1035
SE 1034
▁audit 1034
▁cauze 1034
▁efectiv 1034
gu 1032
sp 1032
▁subven 1032
▁Organisation 1031
▁material 1031
▁provin 1031
▁uni 1031
▁autoriza 1029
▁bă 1029
▁easy 1027
▁excesiv 1027
▁trup 1027
▁40% 1026
▁Voi 1026
▁logic 1025
▁Ponte 1024
▁persoană 1024
▁sfer 1024
▁und 1024
ming 1023
▁construire 1023
▁grant 1023
▁oblig 1023
jana 1022
nda 1022
uk 1022
▁limba 1022
▁experi 1021
▁dec 1020
▁ship 1020
▁Olli 1019
▁compared 1019
▁oportunitat 1019
▁răspund 1019
▁Another 1018
▁Ei 1018
▁disponibil 1018
▁learn 1018
▁schedule 1017
▁source 1017
▁directe 1016
▁situations 1015
▁vaccin 1015
▁violent 1015
binding 1014
▁University 1014
▁hundred 1014
▁sus 1014
fare 1013
laus 1013
▁type 1013
/11 1012
ically 1012
▁TV 1012
▁gender 1012
tting 1011
▁character 1011
▁guvernare 1011
▁limite 1011
▁phase 1011
▁platform 1011
▁described 1008
▁currency 1007
▁guidelines 1007
▁promotion 1007
▁changed 1005
▁companiei 1005
▁vulnerable 1005
▁bari 1004
▁misi 1004
ute 1002
▁Podgor 1002
▁Sub 1002
▁anything 1002
▁măcar 1002
▁presa 1002
▁transmis 1002
ges 1001
responsibilities 1001
sul 1001
ves 1001
▁ONG 1001
▁colaborare 1001
▁refuse 1001
▁adapta 1000
▁elimin 1000
▁maxim 1000
▁mic 1000
PS 999
rane 999
▁Oficial 999
▁anunț 999
▁maximum 999
▁mobile 999
ffer 998
▁locuitori 998
dam 996
sc 996
▁Ze 996
▁exclusiv 996
▁mid 996
jun 995
▁tra 995
▁Office 994
▁mere 994
▁încep 994
atori 993
ens 993
▁Island 993
▁worse 993
bility 992
▁Mil 991
▁killed 990
▁shared 990
▁Swedish 989
▁stable 989
mon 988
▁Japan 988
▁brief 988
▁compania 988
vie 987
cred 986
▁Business 986
▁core 986
▁moartea 986
ject 985
▁Japon 985
▁acquis 985
national 984
▁Când 984
▁fast 984
▁offered 984
▁generate 983
▁proprietate 983
dis 982
▁1992 982
▁Polonia 982
▁acea 982
▁useful 982
▁Bran 981
▁UK 981
▁putting 981
▁rău 981
▁withdraw 981
▁asasi 980
diu 978
▁method 978
HR 977
wed 977
▁centru 977
▁dispar 977
▁Tri 976
▁beneficiar 976
▁cine 976
▁viola 976
ement 975
▁anche 975
▁ris 975
▁wel 975
ndre 974
▁150 974
▁Auditor 974
▁evaluation 974
▁hotărât 974
▁prompt 974
land 973
sor 973
▁instance 972
▁intens 972
▁pra 972
▁witness 972
allowing 971
▁Ministerul 971
▁ideas 971
▁utili 971
hold 970
▁Stockholm 970
▁Latin 969
▁sâmbătă 969
▁Islamic 968
▁poporului 968
▁prove 968
ob 967
▁condamnat 967
▁exhibi 967
cept 966
▁Stru 966
▁destroy 966
▁revenue 966
lv 965
zul 965
▁Cha 965
▁nume 965
CS 964
SV 964
son 964
▁1995 964
▁limbi 964
▁suffering 964
tional 963
▁fine 963
▁ties 963
▁vehicul 963
ALDE 962
ure 962
▁W 962
▁proportion 962
▁sol 962
ctic 961
ovina 961
▁Def 961
▁Mal 961
▁Peace 961
▁divide 961
3% 960
▁Regional 960
▁Vi 960
▁dimensi 960
▁geo 960
▁inform 960
▁lo 960
▁tension 960
▁barrier 959
▁obișnui 959
▁Investment 958
▁Sa 958
▁produced 958
ct 957
▁provocar 957
▁Got 956
▁grad 956
▁imposibil 956
▁capitol 955
▁thought 955
ante 954
▁moral 954
makers 953
▁colle 953
▁taxa 953
bru 952
▁Financial 951
▁Ivanov 951
▁Never 951
▁drop 951
fec 950
▁joacă 950
pune 949
▁employees 949
▁happy 949
▁inclusi 949
▁intre 949
▁reading 949
5% 948
Este 948
pon 948
▁îngriji 948
▁understanding 947
câ 946
ology 946
patri 946
sit 946
▁Poli 946
▁clau 946
▁sc 946
sel 945
▁Report 945
▁primari 945
▁situat 945
▁went 945
▁emergency 944
2% 943
▁completed 943
▁getting 943
▁hours 943
▁ann 942
▁drog 942
▁option 942
tention 941
ots 940
▁Lithuania 940
▁ajusta 940
▁bla 940
▁Fu 939
▁individuals 939
▁sisteme 939
▁cotidian 938
▁foundation 938
▁tool 938
▁Constitution 937
▁devine 937
▁Cup 936
▁Egipt 936
▁Front 936
▁reveni 936
▁sentiment 936
▁Put 935
▁Republika 935
▁ulterior 935
La 934
gues 934
▁comment 934
▁secretar 934
App 932
Se 932
▁uniform 932
Ru 931
▁adrese 931
mos 930
right 930
sch 930
▁Ohr 930
▁Rez 930
▁aspira 929
▁immigrant 929
▁lista 929
▁truly 929
▁focused 928
wing 927
▁animals 927
▁ga 927
▁vehicles 927
▁conce 926
▁detriment 926
▁studen 926
vreme 925
▁lună 925
▁occasion 925
▁relative 925
▁released 925
▁sig 925
▁Mediteran 924
▁exactly 924
▁intensif 924
▁med 924
rimin 923
▁Par 923
▁gave 923
▁hear 922
euro 921
▁Atlantic 921
▁cifre 921
▁gestionar 921
vert 920
▁flow 920
▁2012 919
▁persist 919
▁preparation 919
▁Doamne 918
▁istoria 918
▁release 918
rb 917
▁Only 917
▁considerable 917
▁dubl 917
▁engage 917
▁Confer 916
▁Iceland 916
▁Transport 916
▁advance 916
▁diplomat 916
▁significantly 916
▁urmat 916
fe 915
▁accelerat 915
▁detal 915
▁manage 915
▁parlamentari 915
▁Lider 914
▁became 914
▁colecta 914
▁range 914
▁valabil 914
frac 913
▁Culture 913
▁Protection 913
▁analysis 913
▁Over 912
▁ambition 912
▁claus 912
▁concret 912
tin 911
▁desire 911
▁poporul 911
age 910
▁Comp 910
▁facilities 910
bling 909
dare 909
sec 909
▁bu 909
▁offers 909
▁paper 909
ata 908
par 908
▁Constit 908
▁Ivan 907
Am 906
zam 906
▁Situ 906
▁Sto 906
tter 905
▁w 905
iz 904
▁Top 904
▁route 904
▁schimbat 904
FI 903
▁Bra 903
▁Prima 903
▁century 903
▁jude 903
▁clo 902
▁legale 902
loca 901
vul 901
▁Cuba 901
▁Special 901
▁board 901
▁stă 901
visor 900
▁deserve 900
▁satisf 900
▁colectiv 899
▁minute 899
▁polu 899
V 898
▁convention 898
▁interested 898
▁intrat 898
▁paragraph 898
▁proven 898
▁summer 898
▁Fe 897
active 896
anse 896
▁thinking 896
ifying 895
▁2004. 895
▁lucrez 895
▁restul 895
▁Ni 894
▁arrangement 894
▁lungul 894
▁sensitive 894
▁aminte 893
▁soldi 893
rca 892
▁Afaceri 892
cho 891
ordina 891
position 891
tal 891
ukan 891
▁Politic 891
▁Pop 891
▁invite 891
▁preliminar 891
▁singurul 891
▁trage 891
▁easier 890
▁garante 890
pere 889
trag 889
▁ceremoni 889
▁fenomen 889
▁flood 888
▁medicine 888
▁cerc 887
▁conduc 887
▁organizarea 887
▁valoarea 887
ape 886
ativ 886
ives 886
tain 886
voy 886
▁libere 886
govern 885
lies 885
tensi 885
▁09 885
▁expand 885
▁munt 885
ol 884
▁80 884
▁Programul 884
▁cree 884
▁greatest 884
▁Chart 883
▁identify 883
▁protected 883
ieri 882
▁Free 882
▁built 882
▁placed 882
▁Ea 881
▁lobby 881
▁pres 881
▁Mun 880
▁moving 880
▁prepare 880
▁studiu 880
▁folosite 879
▁persecut 879
▁rutier 879
bar 878
▁înapoi 878
prez 877
▁3. 877
▁Give 877
▁Ladies 877
▁danger 877
▁submit 877
▁drumul 876
▁operating 876
▁sometimes 876
▁Pres 875
▁iau 875
▁lucra 875
▁vizitat 875
▁definit 874
▁prelungi 874
duse 873
▁dangerous 873
▁factors 873
▁ridica 873
PAC 872
▁străinătate 872
assa 871
stra 871
▁Novi 871
▁millions 871
▁mistake 871
▁Fost 870
▁irland 870
▁izol 870
▁perfect 870
▁vam 869
▁village 869
stitu 868
▁2003 868
▁collective 868
▁deadline 868
▁directiva 868
▁nevoile 868
▁Baro 867
▁ignore 867
▁initiat 867
▁provocat 867
dik 866
▁explica 866
▁speaking 866
ovi 865
▁riscul 865
): 864
▁idee 864
7% 863
Mar 862
▁Civil 862
▁Comunitat 862
▁ser 862
▁tortur 862
▁Bo 861
▁deloc 861
ric 860
▁fle 860
like 859
mul 859
tra 859
▁Red 859
▁nr 859
▁shadow 859
▁uneori 859
▁degree 858
▁performa 858
▁rezon 858
▁trend 858
ining 857
kers 857
▁Procedur 857
Tur 856
culture 856
existence 856
▁Follow 856
▁obviously 856
▁sup 856
place 855
▁dependent 855
▁places 855
▁science 855
nou 854
▁modalitat 854
▁street 854
& 853
cour 853
▁doctor 853
▁resort 853
▁aprobarea 852
▁happening 852
fin 851
▁assume 851
▁invit 851
▁presidenti 851
level 850
▁Institute 850
▁Problema 850
▁Sche 850
▁allows 849
▁loss 849
▁purtat 849
▁sound 849
▁Paris 848
▁else 848
▁concep 847
▁consult 847
▁plătit 847
▁2006. 846
▁enforcement 846
▁eventual 846
▁mit 845
▁ora 845
mination 843
▁Crven 843
▁asta 843
▁edi 843
▁rece 843
▁Abdullah 842
▁afectat 842
▁deteriora 842
▁vision 842
ara 841
yan 841
▁masa 841
ume 840
wa 840
onia 839
▁Ahmet 839
▁Bi 839
▁Single 839
▁ideal 839
▁$ 838
▁puteți 838
▁anyone 837
▁causes 836
▁scopuri 836
▁tragic 836
▁bill 835
▁clarifica 834
Office 833
▁reaction 833
old 832
▁played 832
▁Înainte 832
holder 831
impose 831
teritori 831
▁Mart 831
▁Research 831
▁etc 831
▁regenera 831
▁întoarce 831
ration 830
zone 830
▁assure 830
▁door 830
▁je 830
▁juris 830
▁manufacture 830
▁schimba 830
▁serio 830
1% 829
grad 828
▁attract 828
▁migrant 828
▁nec 828
▁70 827
▁Comuni 827
▁participe 827
dimension 826
▁folos 826
▁hotărâre 826
▁subiectul 826
ström 825
▁ended 825
▁instan 825
▁intr 825
▁schools 825
▁sute 825
jate 824
ncing 824
▁chose 824
SP 823
▁apărut 823
▁determin 823
▁hands 823
▁spatele 823
lca 822
ll 822
mint 822
▁Berlin 822
▁Dra 822
▁Proiectul 822
▁methods 822
12 821
▁chapter 821
▁recomanda 821
▁visite 821
cate 820
▁azi 820
▁plâng 820
▁strike 820
▁dezvolta 819
DA 818
til 818
▁Pri 818
▁Sta 818
▁claims 818
▁explic 818
▁marca 818
▁revision 818
▁warm 818
certa 817
jur 817
mark 817
intele 816
olu 816
▁Anul 816
▁Police 816
▁altfel 816
▁atras 816
▁excessive 816
▁listen 816
▁slow 816
ect 815
ologi 815
▁Arab 815
▁construit 815
▁plural 815
stone 814
▁Health 814
▁aeroport 814
▁brutal 814
▁collect 814
▁exclusive 814
clin 813
▁istorie 813
▁relevante 813
▁socio 813
▁urme 813
3 812
nts 812
race 812
▁Belgi 812
▁Care 812
▁attitude 812
▁câte 812
▁den 812
▁flag 812
▁manager 812
▁obvious 811
▁taxes 811
nova 810
ste 810
▁Tibet 809
▁analize 809
▁rota 809
▁tinere 809
8% 808
▁5% 808
▁Anti 808
▁Those 808
▁religion 808
▁întocm 808
uar 807
▁03 806
▁buy 806
▁suppli 806
▁Britain 805
▁dedicat 805
▁gap 805
▁got 805
▁ordina 805
▁st 805
curi 804
▁05 804
▁adică 804
▁acceptable 803
▁identifica 803
▁incentive 802
▁pursue 802
▁referir 802
tâl 801
▁socialist 801
▁vorbesc 801
▁Va 800
▁awareness 800
▁cumpăra 800
▁lines 800
stabil 799
▁Why 799
▁CAP 798
▁Such 798
▁Third 798
De 797
▁Har 797
▁califica 797
▁devastat 797
▁division 797
cient 796
▁Adria 796
▁cau 796
▁cities 796
▁His 795
▁Islam 795
▁preocupa 795
ag 794
dec 794
▁Both 794
vers 793
▁tried 793
bili 792
construction 792
ilib 792
ora 792
▁Form 792
▁West 792
▁det 792
▁familia 792
▁lac 792
▁modificar 792
▁percep 792
eva 791
hen 791
▁preciz 791
km 790
parti 790
▁compliance 790
▁innovative 790
▁spread 790
remo 789
▁Ban 789
▁double 789
dra 788
ha 788
mente 788
one 788
▁Black 788
▁Politica 788
▁cr 788
▁details 788
▁space 788
▁Framework 787
▁Netherlands 787
▁Ob 787
▁Vladimir 787
iol 786
▁Criminal 786
▁Penal 786
▁anniversary 786
▁explicat 786
▁extreme 786
▁scale 786
▁survey 786
▁Institut 785
▁domina 785
▁sar 785
▁Fundamental 784
▁scut 784
▁senior 784
▁youth 784
owned 783
rad 783
sager 783
▁02 783
▁independente 783
âm 782
▁80% 782
▁Carte 782
▁component 782
▁fulfill 782
▁pac 781
N 780
cession 780
▁VOA 780
▁geografi 780
▁Scop 779
▁Two 779
▁distribution 779
▁pedepse 779
▁răni 779
▁companie 778
▁condamna 778
▁Budget 777
▁descoperit 777
▁indirect 777
▁Principal 776
▁dead 776
▁impossible 776
▁instala 776
▁procure 776
and 775
estructura 775
ificat 775
▁Core 775
Ser 774
▁Tan 774
▁mu 774
fair 773
▁comportament 773
▁concentra 773
exploitation 772
▁Rusi 772
▁Work 772
▁handicap 772
▁z 772
▁Merkel 771
▁Poate 771
▁bomb 771
Cre 770
dera 770
▁Christo 770
▁expectations 770
▁frecvent 770
▁worst 770
▁design 769
▁polo 769
gem 768
▁Bush 768
▁Proces 768
▁observe 768
ds 767
▁04 767
▁Solidari 767
▁advocate 767
▁gra 767
▁învățământ 767
face 766
▁Goran 766
▁Sali 766
▁oferite 766
prox 765
▁From 765
▁asoci 765
▁tradi 765
arti 764
▁seem 764
▁sort 764
▁sum 764
adda 763
lega 763
making 763
scri 763
ual 763
▁Assembl 763
▁Syria 763
▁bre 763
▁calcul 763
▁sco 763
There 762
qua 762
▁grow 762
ck 761
credit 761
nit 761
que 761
▁Ku 761
▁explicit 761
▁interpret 761
▁licita 761
▁observ 761
rz 760
▁Ru 760
▁ignora 760
marks 759
▁Chinese 759
▁simt 759
dia 758
location 758
▁06 758
▁asculta 758
▁fragil 758
▁match 758
▁utiliza 758
▁Document 757
▁federal 757
▁foc 757
▁rare 757
▁salvare 757
General 756
Pre 756
free 756
▁designed 756
▁pop 756
▁sports 756
▁definitely 755
▁resign 755
hed 754
dop 753
▁08 753
▁Paul 753
▁cert 753
▁durata 753
▁tang 753
▁train 753
sia 752
▁responsabile 752
nos 751
oi 751
tr 751
▁Army 751
▁Man 751
▁artist 751
▁materiale 751
▁2000 750
▁BH 750
▁Control 750
▁bar 750
▁blue 750
gur 749
▁Băsescu 749
▁Sistem 749
▁Written 749
▁airport 749
▁explained 749
▁juca 749
▁libera 749
▁object 749
▁pasa 749
▁trai 749
▁written 749
▁aduna 748
▁ambasador 748
▁decline 748
▁exe 748
evalua 747
▁register 747
▁select 747
▁tests 747
▁Compania 746
▁associated 746
▁tone 746
▁Vor 745
▁boli 744
▁eticheta 744
▁mother 744
▁primary 744
▁eta 743
▁primar 743
▁reg 743
▁tipuri 743
Da 742
Oct 742
arii 742
▁combustibil 742
▁div 742
▁doamna 742
▁experiență 742
▁indicat 742
cide 741
ober 741
obligatoriu 741
▁drum 741
▁eco 741
▁pr 741
▁pret 741
Stream 740
clear 740
▁Asocia 740
▁tradition 740
10) 739
ho 739
stance 739
▁capable 739
▁var 739
cess 738
fr 738
gal 738
tie 738
▁dispune 738
▁ki 737
▁ro 737
wise 736
▁crise 736
▁fiecărui 736
EG 735
II 735
▁fabric 735
▁mondiale 735
▁participan 735
▁01 734
▁Arma 734
▁dau 734
▁waiting 734
ril 733
▁Strategie 733
▁prepar 733
ome 732
▁60% 732
▁base 732
▁fin 732
▁numbers 732
▁oferim 732
▁bunu 731
▁feed 731
▁obicei 731
▁Consum 730
▁appear 730
▁mereu 730
▁cineva 729
▁impuls 729
▁interiorul 729
Nov 728
▁Bine 728
▁profesor 728
Re 727
ansa 727
▁Hoop 727
/2009 726
tz 726
▁2012. 726
▁execut 726
Ko 725
RL 725
▁600 725
▁historical 725
medi 724
▁Armenia 724
▁Protocol 724
▁audi 724
▁executiv 724
▁hearing 724
▁sarcina 724
▁worry 724
▁Mini 723
▁vremuri 723
▁Fi 722
▁aveți 722
▁collection 722
▁echipamente 722
▁gradual 722
▁vizita 722
▁2005. 721
▁Traian 721
▁choose 721
▁univers 721
provi 720
▁250 720
▁sav 720
▁vânzare 720
fuz 719
lei 719
▁Yet 719
▁disagree 719
▁lucrat 719
▁son 719
▁stipula 719
R 718
illa 718
umi 718
▁Ba 718
▁Costa 718
▁ținut 718
▁2013. 717
▁90% 717
▁alege 717
▁fragment 717
▁studii 717
▁track 717
▁owner 716
▁imens 715
▁stri 715
crimina 714
dat 714
▁accesibil 714
▁monopol 714
▁obiect 714
09) 713
accelera 713
balance 713
hic 713
rin 713
▁Finance 713
▁myself 713
▁purchase 713
▁wait 713
/07 712
comunica 712
itor 712
▁2001 712
▁carefully 712
gence 711
row 711
server 711
▁covered 711
▁palestin 711
▁players 711
▁skills 711
▁Most 710
▁cultură 710
▁hai 710
▁televiziune 710
▁turned 710
▁ultim 710
bur 709
▁truth 709
▁utilizare 709
Fe 708
cus 708
▁flux 708
▁materials 708
org 707
▁07 707
▁Ve 707
▁combine 707
ese 706
▁asigurat 706
▁industriale 706
▁Încă 706
Christian 705
entrepreneur 705
▁Ro 705
▁alia 705
Ar 704
closure 704
integra 704
▁Cau 704
▁Nici 704
▁expres 704
▁prelua 704
▁ziar 704
ory 703
▁bucura 703
▁interview 703
▁italian 703
▁letter 703
▁optimist 703
cut 702
▁Forum 702
▁faz 702
▁penalty 702
aliment 701
ean 700
▁Disc 700
▁Guan 700
▁association 700
▁viza 700
Sun 699
este 699
ima 699
▁dezvălui 699
▁identity 699
▁jurul 699
▁morning 699
▁negli 699
/09 698
cis 698
ligi 698
sible 698
▁remo 698
mbur 697
shing 696
stare 696
▁Federa 696
▁Stefan 696
▁earth 696
▁executive 696
▁fre 696
▁parti 696
▁tens 696
wo 695
▁Basescu 695
▁belgi 695
▁holding 695
▁score 695
▁vrem 695
una 694
▁2013 694
▁Sarkozy 694
▁min 694
▁repres 694
▁retro 694
▁Jocuri 693
▁Unii 693
▁clean 693
▁yesterday 693
ron 692
venind 692
▁Dr 692
▁Hashim 692
▁arbitra 692
▁lăsat 692
▁motor 692
▁vast 692
indu 691
ovo 691
rescu 691
uro 691
▁chinez 691
▁helped 691
▁identified 691
▁transmit 691
meri 690
▁Yemen 690
▁cuprins 690
▁Soviet 689
▁cop 689
prin 688
▁Una 688
▁devo 688
▁interfere 688
▁părinți 688
▁ultra 688
PI 687
eth 687
io 687
op 687
▁2003, 687
▁VAT 687
▁medie 687
▁quota 687
▁saw 687
▁van 687
wi 686
▁Rad 686
▁Slova 686
▁TVA 686
▁hospital 686
▁showed 686
▁someone 686
competent 685
▁courage 685
▁transplant 685
▁turistic 685
Majoritatea 684
ever 684
ierul 684
▁Or 684
▁afară 684
▁changing 684
▁computer 684
▁opus 684
pose 683
▁broadcast 683
▁obligat 683
▁retire 683
Dec 682
uta 682
▁Communi 682
▁ascund 682
▁behaviour 682
▁historic 682
▁integral 682
▁intelectual 682
▁profesionale 682
▁solicitar 682
int 681
ological 681
▁Carl 681
▁RFE 681
▁definitiv 681
▁identificat 681
▁disp 680
▁intermedi 680
▁net 680
▁trading 680
off 679
san 679
▁entirely 679
▁industri 679
▁preventiv 679
▁Doar 678
▁Gene 678
▁Mir 678
▁peti 678
▁pragmat 678
don 677
sten 677
▁Atunci 677
▁Universitatea 677
▁lapte 677
▁operatori 677
▁tranzit 677
IB 676
▁cuprinde 676
▁ieri 676
▁stoc 676
▁veni 676
ctura 675
▁Evenimentul 675
▁distr 675
▁inspect 675
▁insurance 675
▁privatiz 675
▁sole 675
May 674
mental 674
▁Ki 674
▁Sue 674
▁calcula 674
▁definition 674
▁identitate 674
▁nei 674
▁reprezent 674
appropria 673
tari 673
▁Recent 673
▁Thu 673
▁carne 673
▁housing 673
▁worldwide 673
Atlant 672
body 672
tical 672
▁120 672
▁considering 672
dice 671
liance 671
▁Dutch 671
▁experiența 671
▁newspaper 671
ntul 670
soci 670
tia 670
vit 670
▁4. 670
▁Women 670
▁minutes 670
▁priv 670
/10 669
IM 669
▁1998 669
▁Taiwan 669
▁meaning 669
nov 668
ong 668
▁BE 668
▁Belgium 668
▁aur 668
▁reasonable 668
bri 667
prem 667
▁Freedom 667
▁pass 667
▁Ga 666
▁ri 666
If 665
mont 665
nik 665
▁Hasan 665
▁couple 665
▁dincolo 665
band 664
democrat 664
▁chain 664
▁otherwise 664
▁ziua 664
ros 663
▁PE 663
▁arrived 663
▁dimensiuni 663
▁ideologi 663
▁Dnevnik 662
▁Economi 662
▁comunist 662
▁delegat 662
financ 661
iri 661
rez 661
▁IT 661
▁exceptional 661
▁spital 661
qual 660
▁Conference 660
▁cresc 660
PM 659
atorul 659
non 659
▁25% 659
▁Stip 659
▁combina 659
▁participants 659
▁personally 659
▁prezentare 659
▁revol 659
To 658
house 658
mers 658
pris 658
▁Finland 658
fic 657
▁Food 657
▁alta 657
og 656
propor 656
▁Milan 656
▁offering 656
▁thorough 656
▁Antonio 655
▁Federation 655
▁comunica 655
▁obligatorii 655
▁regul 655
▁speci 655
▁tools 655
jele 654
lc 654
▁diversifica 654
▁responsabili 654
▁70% 653
▁depozit 653
▁drive 653
▁incorpora 653
related 652
voc 652
▁Hamas 652
▁acte 652
▁adjust 652
▁generally 652
▁spend 652
▁spiritu 652
▁Premier 651
▁keeping 651
izări 650
▁Sad 650
▁preluat 650
▁verde 650
TP 649
cute 649
▁45 649
▁anal 649
▁cân 649
▁datele 649
▁drug 649
▁incendi 649
▁tender 649
imit 648
minu 648
▁exploit 648
▁sex 648
/2010 647
ceanu 647
vanta 647
▁Slovakia 647
▁linii 647
▁români 647
▁save 647
▁sărbători 647
▁users 647
L 646
debat 646
eks 646
▁Ini 646
▁aprecia 646
▁gr 646
▁heavy 646
▁interzis 646
▁parents 646
▁vizibil 646
▁Instead 645
▁Nata 645
▁folosesc 645
▁intellectu 645
▁medali 645
▁predict 645
▁ref 645
▁residen 645
dur 644
▁interesting 644
▁rene 644
amo 643
dele 643
▁natura 643
▁patrimoni 643
▁reliable 643
fina 642
standing 642
▁lipsit 642
▁optim 642
text 641
▁Beijing 641
▁paying 641
AP 640
▁800 640
▁benefic 640
▁extension 640
▁zbor 640
ub 639
▁alegerea 639
▁dinami 639
stor 638
▁assets 638
▁club 638
▁flight 638
▁locali 638
▁quarter 638
meli 637
pped 637
▁Agenda 637
▁friends 637
▁prag 637
▁London 636
▁clasa 636
▁digni 636
▁exception 636
▁leaving 636
▁Peste 635
▁massive 635
▁sunteți 635
▁wealth 635
▁Che 634
▁Korea 634
▁Mu 634
▁Sweden 634
▁ju 634
know 633
▁gone 633
▁mer 633
▁visas 633
pic 632
▁milk 632
▁primesc 632
▁resist 632
Co 631
jat 631
nde 631
tán 631
▁3% 631
▁Cul 631
▁Totodată 631
▁error 631
▁donor 630
▁gest 630
▁opinions 630
▁playing 630
cak 629
lapse 629
lec 629
verge 629
▁Instrument 629
▁destina 629
▁intensiv 629
▁mal 629
▁rund 629
▁vreau 629
▁flexible 628
Jun 627
cale 627
▁Conserva 627
▁Ma 627
▁centres 627
▁exempt 627
▁flu 627
▁Îmi 627
respons 626
tehnic 626
▁Kingdom 626
▁Not 626
▁Premi 626
▁atent 626
▁complaint 626
▁masiv 626
▁mor 626
▁technolog 626
mu 625
pet 625
▁felul 625
pin 624
▁USA 624
▁fabrica 624
zu 623
▁Ky 623
mann 622
AK 621
cultural 621
sions 621
▁Cât 621
▁fra 621
▁teroris 621
▁îndepărta 621
▁Mult 620
▁apropie 620
▁relativ 620
▁rezid 620
▁title 620
ential 619
▁marginal 619
▁problematic 619
Jan 618
▁Linda 618
▁interviu 618
▁observat 618
▁prealabil 618
▁showing 618
capaci 617
mai 617
▁Bak 617
▁Dori 617
▁acasă 617
▁detailed 617
▁previously 617
▁Wall 616
▁minime 616
▁renova 616
ial 615
tering 615
â 615
▁battle 615
▁emer 615
▁zero 615
07) 614
▁floor 614
▁homes 614
▁israel 614
▁zeci 614
inger 613
lock 613
secuti 613
▁Că 613
▁Science 613
▁acce 613
▁appreciate 613
▁delibera 613
▁inf 613
▁joc 613
mpo 612
▁Javier 612
▁contamina 612
▁explanation 612
▁rank 612
▁reconcilia 612
▁simți 612
GF 611
tro 611
zon 611
▁Il 611
▁card 611
▁council 611
▁gener 611
▁hun 611
▁Biro 610
▁Vas 610
▁existent 610
▁size 610
▁stau 610
▁subsequent 610
fax 609
gile 609
▁Are 609
▁Head 609
▁altceva 609
▁oferind 609
UE 608
▁argu 608
▁dos 608
▁reper 608
cup 607
▁15% 607
▁Open 607
▁channel 607
▁facility 607
▁postul 607
▁struggle 607
W 606
rg 606
▁Safety 606
▁comercializa 606
▁rele 606
08) 605
clan 605
roc 605
▁David 605
▁categorii 605
▁foot 605
▁informal 605
▁powerful 605
/04 604
▁App 604
▁Ramadan 604
▁tragedi 604
▁propos 603
▁protesta 603
▁running 603
?" 602
schi 602
▁Bor 602
▁administrativ 602
condition 601
neri 601
▁Ka 601
▁comparativ 601
▁precau 601
▁reveal 601
05) 600
bridge 600
nta 600
▁adânc 600
▁categorie 600
▁detalii 600
▁voce 600
nier 599
▁honest 599
▁night 599
▁ritm 599
respect 598
▁exemple 598
▁loca 598
▁necesita 598
▁plen 598
▁val 598
▁patent 597
▁realize 597
vat 596
zele 596
▁Reform 596
▁estime 596
▁kept 596
▁mental 596
▁ou 596
▁absurd 595
▁academic 595
▁commande 595
▁sponsor 595
lari 594
we 594
▁dum 594
▁remove 594
▁sites 594
▁totally 594
1995 593
ALE 593
▁Manuel 593
▁Without 593
▁deze 593
▁links 593
▁resolvi 593
▁section 593
▁treated 593
Ap 592
▁Boz 592
mier 591
▁Congo 591
▁asist 591
▁jocuri 591
▁proced 591
▁rep 591
▁sugesti 591
zile 590
▁moneda 590
Gazprom 589
gene 589
tii 589
vara 589
zo 589
▁EP 589
▁Schul 589
▁contracte 589
▁principali 589
▁resta 589
gres 588
▁articolului 588
set 587
▁Ber 587
▁exceed 587
▁representa 587
▁speciali 587
met 586
mina 586
▁Alzheimer 586
▁Ti 586
▁confisca 586
▁redact 586
WTO 585
bin 585
mer 585
▁Belgia 585
▁Dimitri 585
▁Malta 585
▁Polis 585
registre 584
▁Buck 584
▁Carta 584
▁band 584
▁below 584
▁celebrate 584
▁ghi 584
▁imperativ 584
▁incomp 584
nin 583
▁Mem 583
▁grateful 583
▁prohibi 583
▁registered 583
▁scena 583
▁tough 583
▁version 583
ard 582
▁Estonia 582
annu 581
prima 581
▁Josip 581
▁contest 581
▁fonda 581
▁recall 581
▁seri 581
▁Rela 580
▁afford 580
▁folosirea 580
▁gold 580
▁supporter 580
oaie 579
pou 579
▁Before 579
▁Doha 579
▁Growth 579
▁murit 579
▁nem 579
▁reta 579
▁room 578
▁tras 578
bon 577
hel 577
ys 577
▁90 577
▁Moscow 577
▁appointment 577
▁delicat 577
▁evening 577
▁false 577
▁mostly 577
▁television 577
▁Latvia 576
▁Tala 576
▁feeling 576
▁ferme 576
▁personale 576
landa 575
mal 575
▁controversia 575
▁cărți 575
▁scrisoare 575
hez 574
▁Law 574
▁Ljub 574
▁consilier 574
▁drastic 574
▁stânga 574
▁wine 574
MC 573
▁fugi 573
▁niște 573
▁Interior 572
▁appears 572
▁putin 572
▁studi 572
▁studies 572
000 571
cies 571
obligatori 571
opo 571
tiva 571
▁proud 571
▁reserve 571
06) 570
duct 570
▁consolidar 570
▁noroc 570
▁options 570
▁sume 570
▁uns 570
mping 569
qi 569
▁700 569
▁Americi 569
▁HIV 569
▁contrast 569
▁ton 569
▁Beta 568
▁Y 568
▁felt 568
▁football 568
▁resume 568
gation 567
jin 567
mis 567
pas 567
▁1991 567
▁Join 567
▁Rezultat 567
▁seeing 567
▁sell 567
▁totalitar 567
J 566
No 566
▁Force 566
▁MP 566
▁distin 566
▁identi 566
▁proved 566
▁volatil 566
stic 565
▁2007-2013 565
▁music 565
▁pilot 565
Jul 564
lov 564
▁Dis 564
▁ese 564
▁rais 564
▁significa 564
▁turi 564
her 563
ologie 563
▁2013, 563
▁Art 563
▁Program 563
▁Sever 563
▁Sri 563
▁phone 563
▁cultura 562
▁monument 562
▁plat 562
▁rapide 562
▁simbol 562
▁sociali 562
▁ut 562
DS 561
crat 561
▁cumpără 561
▁discipline 561
pending 560
psi 560
▁Kon 560
▁Nime 560
▁analyse 560
▁fe 560
▁meant 560
▁ultime 560
BG 559
of 559
▁Fac 559
▁Once 559
▁autovehicul 559
cking 558
▁Emp 558
▁creative 558
▁transporta 558
▁valuable 558
SS 557
fully 557
mea 557
▁Ort 557
▁approximately 557
▁drawing 557
▁ieftin 557
▁liste 557
▁sediul 557
pping 556
rov 556
▁Var 556
▁automobile 556
▁făcând 556
▁olan 556
ises 555
▁altul 555
▁interior 555
▁irregular 555
▁sensul 555
▁tonn 555
gard 554
tut 554
▁Mak 554
▁ataca 554
▁exam 554
▁insuficient 554
▁quick 554
▁search 554
▁types 554
▁unless 554
Qaeda 553
▁Az 553
▁activist 553
▁lawyer 553
▁regardless 553
▁root 553
point 552
serve 552
▁divers 552
▁identific 552
▁universiti 552
▁vreun 552
ologia 551
toxic 551
▁himself 551
▁instrui 551
▁please 551
▁sistema 551
oc 550
▁Ana 550
▁earn 550
▁suitable 550
▁valid 550
File 549
jul 549
lls 549
▁church 549
▁confu 549
▁fa 549
▁pollution 549
▁rever 549
▁rival 549
▁species 549
iling 548
tiu 548
▁Jean 548
▁absolute 548
▁cutremur 548
▁eva 548
▁experienced 548
▁residents 548
▁suma 548
Peter 547
bor 547
ndere 547
var 547
▁mobili 547
▁supposed 547
ane 546
▁Banja 546
▁Tar 546
▁antreprenori 546
▁happens 546
▁Lanka 545
▁advers 545
▁cheap 545
▁pla 545
NE 544
etate 544
pesticid 544
tolera 544
▁art 544
▁ball 544
▁entitled 544
▁oper 544
▁paralel 544
8 543
▁San 543
▁applications 543
▁arab 543
▁dynamic 543
▁ear 543
▁employer 543
▁fotbal 543
undan 542
▁simplă 542
INA 541
▁Olimp 541
▁X 541
▁birth 541
▁observer 541
nifica 540
▁detail 540
▁elector 540
▁player 540
▁pleca 540
▁părăsi 540
▁receiving 540
milit 539
▁Exp 539
▁Op 539
▁drumuri 539
▁file 539
▁ignor 539
▁jucător 539
▁petrecut 539
▁stadi 539
▁unique 539
EPA 538
SIS 538
asi 538
key 538
mb 538
▁cli 538
▁fruit 538
▁medal 538
ec 537
eria 537
specta 537
▁Authority 537
▁Implement 537
▁arti 537
▁lemn 537
▁lice 537
▁tim 537
por 536
▁Democracy 536
▁Information 536
▁Sim 536
▁automat 536
▁emit 536
▁reli 536
▁utilize 536
imi 535
▁Bani 535
▁Desc 535
▁deosebire 535
▁disposa 535
▁immun 535
furi 534
▁district 534
▁mașini 534
▁soc 534
▁volum 534
enii 533
flict 533
▁except 533
▁offen 533
▁vest 533
adequa 532
found 532
psa 532
▁2003. 532
▁marine 532
▁Mari 531
▁comunicat 531
▁intervi 531
▁student 531
daj 530
list 530
▁5. 530
▁Martin 530
▁belief 530
▁black 530
▁stea 530
lasting 529
▁Londra 529
▁dreapta 529
▁manier 529
▁prevederil 529
ade 528
cons 528
pind 528
▁Department 528
▁admis 528
▁faith 528
▁fiu 528
▁invitation 528
August 527
Con 527
flu 527
ieties 527
▁colabora 527
▁image 527
▁interesant 527
bus 526
ective 526
ines 526
lt 526
pression 526
▁2012, 526
pani 525
tolerance 525
FTA 524
ders 524
▁Independent 524
▁Spr 524
▁handle 524
▁impresi 524
▁islami 524
▁location 524
▁rich 524
▁rock 524
▁stim 524
▁vârsta 524
hod 523
revolu 523
▁1% 523
▁Departament 523
▁Miroslav 523
▁Ri 523
▁demografi 523
▁incidente 523
▁marked 523
▁planet 523
▁publish 523
asta 522
▁Dun 522
▁constantly 522
▁dair 522
▁remunera 522
OK 521
feat 521
▁2001, 521
▁breve 521
▁cancel 521
▁kill 521
▁learning 521
Tom 520
control 520
minti 520
mpi 520
wide 520
▁55 520
▁Im 520
▁calm 520
▁previ 520
▁transit 520
▁(1 519
▁Interna 519
▁Monitor 519
▁Telekom 519
▁UNESCO 519
▁advise 519
▁educational 519
▁mână 519
ox 518
▁Any 518
▁Bro 518
▁Dur 518
▁advertising 518
▁communi 518
▁driving 518
▁manipula 518
▁race 518
▁wider 518
phen 517
ret 517
▁Madeira 517
▁Mis 517
▁class 517
▁provincia 517
▁spec 517
ASA 516
ledge 516
proof 516
▁Games 516
▁Ter 516
▁cla 516
▁coherent 516
▁comentarii 516
▁easily 516
▁facilite 516
▁senti 516
oca 515
tea 515
▁amp 515
▁gestiona 515
west 514
▁Australia 514
▁Political 514
▁hotel 514
▁imun 514
▁robust 514
▁verific 514
▁wind 514
ants 513
mise 513
ponent 513
tan 513
▁eye 513
▁interpreta 513
▁names 513
▁ordin 513
▁uz 513
▁arms 512
▁nel 512
▁shift 512
iate 511
▁Personal 511
▁Rug 511
▁Then 511
▁homosexual 511
▁satisfied 511
U 510
cap 510
▁sindicat 510
ceri 509
dioxid 509
mision 509
▁intimida 509
▁physical 509
04) 508
4 508
lly 508
pel 508
▁Em 508
▁Home 508
▁Jess 508
▁Statist 508
▁ha 508
▁symbol 508
▁woman 508
cere 507
count 507
ducere 507
▁Mo 507
▁ajutat 507
▁caută 507
11) 506
ICT 506
african 506
ovac 506
repet 506
▁6. 506
▁Acc 506
▁EF 506
▁Robert 506
▁Switzerland 505
▁catch 505
▁destination 505
▁echipă 505
▁elsewhere 505
▁multiple 505
▁zilnic 505
ista 504
registra 504
▁Filip 504
▁capacitat 504
▁categori 504
▁echipe 504
▁smaller 504
5 503
PC 503
▁Barcelona 503
▁căutare 503
▁missing 503
▁possibili 503
▁separa 503
▁served 503
▁string 503
▁Education 502
Do 501
▁Ay 501
▁angajator 501
▁cor 501
▁importe 501
▁mayor 501
SF 500
lit 500
rro 500
sprezece 500
ssy 500
▁Paper 500
▁accidente 500
▁compatibil 500
▁inevitabil 500
▁neo 500
▁pain 500
get 499
pat 499
▁Nobel 499
▁VM 499
▁located 499
▁systematic 499
cas 498
niem 498
product 498
quen 498
shi 498
▁Michael 498
▁Obi 498
▁Sha 498
▁ascult 498
▁game 498
▁lessons 498
▁poartă 498
▁sloven 498
iga 497
iter 497
sim 497
▁Studi 497
▁americani 497
▁comunitat 497
▁occidental 497
ami 496
ssa 496
under 496
▁John 496
▁absen 496
▁apro 496
▁colon 496
▁suprem 496
▁tight 496
500 495
tem 495
▁Camere 495
▁Confe 495
▁Pat 495
▁feature 495
▁finish 495
▁holiday 495
▁scene 495
erat 494
gan 494
▁Pacific 494
▁nav 494
ID 493
ardi 493
ef 493
regi 493
▁Official 493
▁Participa 493
▁disputa 493
▁driver 493
▁echipei 493
▁massa 493
▁res 493
▁stare 493
▁Crime 492
▁book 492
▁command 492
▁manifest 492
▁whilst 492
Rus 491
WI 491
demo 491
minen 491
▁Spa 491
▁atribui 491
▁bir 491
▁bit 491
▁emigr 491
▁knows 491
▁militari 491
▁practica 491
sted 490
▁(6 490
▁Portu 490
▁Pă 490
▁spa 490
lung 489
nare 489
▁disappear 489
▁precizat 489
▁slăbi 489
▁vândut 489
5,000 488
back 488
ssem 488
uit 488
▁HDZ 488
▁Mostar 488
▁aver 488
▁fuga 488
▁48 487
▁Pan 487
▁Ul 487
▁plac 487
▁removed 487
▁votar 487
▁weekend 487
Pro 486
mei 486
rare 486
▁Eur 486
▁Tourism 486
▁sit 486
mele 485
▁(2) 485
▁75 485
▁lini 485
▁presentation 485
▁resource 485
fu 484
icul 484
pi 484
zen 484
▁Ata 484
▁impo 484
▁mâini 484
▁pesca 484
elect 483
▁banane 483
▁bor 483
▁constata 483
▁drugs 483
▁înregistrare 483
ars 482
ep 482
stadt 482
▁epidemi 482
▁healthy 482
▁precis 482
▁sending 482
▁winner 482
6 481
mple 481
well 481
▁Sar 481
▁Siria 481
▁brut 481
▁destruction 481
▁percentage 481
CTA 480
SM 480
favor 480
▁Medi 480
▁avansat 480
▁familiar 480
▁jurnalist 480
▁mora 480
▁neoliberal 480
▁video 480
▁vite 480
colo 479
firma 479
inde 479
▁Schi 479
▁Te 479
bit 478
uze 478
▁Bur 478
▁Iz 478
▁Kova 478
▁Zimbabwe 478
▁absorb 478
▁contractual 478
▁pan 478
region 477
rica 477
▁0 477
▁2050 477
▁34 477
▁bond 477
▁personnel 477
▁prieten 477
▁responde 477
absence 476
assurance 476
cri 476
oni 476
vut 476
▁Sur 476
▁collaboration 476
▁magazine 476
▁pierderea 476
▁reproduc 476
▁thre 476
▁veto 476
pass 475
▁Dublin 475
▁Plus 475
▁Război 475
▁boy 475
▁costi 475
▁dispus 475
▁dona 475
▁motiva 475
▁preced 475
▁sharing 475
▁web 475
ality 474
▁acquire 474
▁causing 474
▁decrease 474
▁râ 474
▁sales 474
activ 473
solve 473
▁(5 473
▁Mehmet 473
▁blood 473
▁expensive 473
▁relax 473
esti 472
istan 472
laud 472
lele 472
post 472
vern 472
will 472
▁32 472
▁Cerc 472
▁Four 472
▁Men 472
▁Moscova 472
▁debat 472
▁marketing 472
▁revolution 472
▁star 472
▁superior 472
igu 471
nje 471
▁Every 471
▁arunc 471
▁eventually 471
▁genetic 471
▁intense 471
▁linie 471
03) 470
Demo 470
kes 470
▁65 470
▁Alege 470
▁Gor 470
▁impression 470
ost 469
plus 469
regula 469
▁etape 469
▁fum 469
▁ses 469
▁turning 469
vil 468
▁2000, 468
▁Ble 468
▁Current 468
▁Ten 468
▁lumina 468
▁optimism 468
communication 467
gun 467
sur 467
▁100% 467
▁female 467
▁mijlocul 467
▁moved 467
▁regener 467
uff 466
zar 466
▁Inc 466
▁Will 466
▁buna 466
▁champion 466
▁rezult 466
▁spring 466
▁tubercul 466
quart 465
torie 465
▁cant 465
▁glad 465
▁lăsa 465
▁tânăr 465
17 464
SA 464
sha 464
▁System 464
▁cunosc 464
▁finale 464
cert 463
cks 463
marca 463
▁Pur 463
▁Putin 463
▁Vel 463
▁apart 463
▁cuvintele 463
▁features 463
▁inteligent 463
▁mandato 463
▁penale 463
▁professor 463
kusi 462
telu 462
▁(3 462
▁rei 462
▁shock 462
cro 461
cun 461
uti 461
▁Aici 461
▁Jos 461
▁Jose 461
▁Mexico 461
▁atribu 461
▁escala 461
▁metod 461
▁mobiliza 461
▁rebel 461
▁refus 461
▁secolul 461
itud 460
pool 460
sure 460
▁(8) 460
▁J 460
▁Lucr 460
▁Oamenii 460
▁Refer 460
itar 459
proba 459
reg 459
▁Contact 459
▁Here 459
▁Pie 459
▁Year 459
▁confident 459
▁consist 459
▁interpretation 459
▁larger 459
▁possibly 459
ables 458
consider 458
nsa 458
▁Crăciun 458
▁background 458
▁consent 458
▁constat 458
▁foame 458
▁judgment 458
▁lanse 458
▁season 458
▁whatever 458
ffi 457
plan 457
ren 457
run 457
▁Informa 457
▁moderat 457
▁recover 457
▁supplement 457
▁vad 457
ily 456
kan 456
mani 456
▁grijă 456
▁institut 456
▁trip 456
CB 455
eni 455
rier 455
site 455
▁calendar 455
▁employ 455
▁estic 455
▁moderne 455
▁portu 455
ert 454
peri 454
titul 454
▁eliberat 454
▁voluntari 454
ebi 453
ico 453
vine 453
▁36 453
▁Daniel 453
▁returned 453
▁story 453
▁ves 453
ley 452
▁Ele 452
▁Fisher 452
▁Split 452
▁construct 452
▁inside 452
▁map 452
▁modific 452
ense 451
pharma 451
▁(12 451
▁Parlamentar 451
▁amplo 451
▁bol 451
nun 450
▁12. 450
▁merg 450
▁starea 450
uja 449
▁43 449
▁Ben 449
▁friendly 449
▁milion 449
▁tema 449
/03 448
For 448
inge 448
take 448
▁Indi 448
▁PAS 448
▁gri 448
kis 447
▁Clinton 447
▁Integra 447
bound 446
erie 446
tine 446
▁1989 446
▁CNN 446
▁Ju 446
▁Vienna 446
▁fals 446
▁lichid 446
Mac 445
olva 445
prime 445
▁Alte 445
▁Gold 445
▁Amen 444
▁bus 444
▁infect 444
▁segment 444
▁tratamentul 444
▁vreo 444
AS 443
kush 443
pen 443
pul 443
▁English 443
▁Yes 443
▁kurz 443
▁mear 443
cked 442
▁Economy 442
▁articol 442
▁bur 442
▁flot 442
cker 441
ik 441
▁assassin 441
▁gun 441
anii 440
regul 440
▁deseo 440
▁fraude 440
▁les 440
bare 439
era 439
ett 439
▁2% 439
▁Local 439
▁Mile 439
▁Numa 439
▁Regard 439
▁Small 439
▁Statut 439
▁father 439
▁telefoni 439
connect 438
oane 438
tel 438
▁About 438
▁Alexander 438
▁Kar 438
▁consiste 438
▁sharp 438
▁simultan 438
tail 437
▁9. 437
▁Lazar 437
▁hen 437
▁software 437
ker 436
phe 436
power 436
▁Bos 436
▁Christmas 436
▁Mex 436
▁Număr 436
▁SA 436
▁banana 436
▁canal 436
▁cru 436
▁somewhat 436
▁trebuia 436
cit 435
ctor 435
life 435
zer 435
▁metri 435
▁provider 435
▁scientist 435
Un 434
iat 434
ways 434
▁Azerbaijan 434
▁Kosova 434
▁qualification 434
▁rang 434
▁situ 434
▁stagn 434
▁university 434
pe 433
sche 433
usa 433
▁(15 433
▁(18 433
▁eyes 433
▁falsifica 433
▁memorandum 433
▁piece 433
▁volume 433
lish 432
ès 432
▁Sing 432
▁apei 432
▁izb 432
▁minut 432
Activ 431
Speak 431
▁Dou 431
▁Like 431
▁Lo 431
▁guide 431
▁picture 431
/2008 430
Ne 430
▁caracteristici 430
▁curte 430
▁dificultat 430
▁ja 430
oli 429
vet 429
vizor 429
▁Stav 429
▁humanit 429
▁pure 429
▁trouble 429
gent 428
ija 428
tica 428
▁Ref 428
▁adres 428
▁clienți 428
▁concession 428
▁lim 428
▁spectacol 428
▁treacă 428
gren 427
▁37 427
▁facto 427
▁matur 427
▁nominal 427
▁predomina 427
▁transparente 427
▁understood 427
esta 426
hard 426
▁Selim 426
▁Services 426
▁Where 426
▁furt 426
▁ge 426
▁sham 426
building 425
ced 425
mmer 425
riji 425
sare 425
▁(21 425
▁(9 425
▁Od 425
▁Pad 425
▁baro 425
▁career 425
▁constituent 425
▁grip 425
▁items 425
▁river 425
press 424
sho 424
▁Iar 424
▁Pr 424
▁plu 424
▁sake 424
cad 423
▁Bajram 423
▁Because 423
▁Fun 423
▁Nico 423
▁complexe 423
▁servi 423
Be 422
gar 422
mp 422
ores 422
xa 422
▁10. 422
▁4% 422
▁TP 422
▁Viena 422
▁category 422
▁gu 422
▁lift 422
▁specifica 422
determina 421
mount 421
▁7. 421
▁Viol 421
▁ating 421
▁complementar 421
▁dolari 421
▁helps 421
▁pagu 421
▁prieteni 421
▁sensible 421
▁sla 421
▁wonder 421
uiesc 420
▁(17 420
▁Fer 420
▁Foundation 420
▁activa 420
▁afraid 420
▁fura 420
▁nevoit 420
▁scor 420
▁smug 420
▁viz 420
▁(23 419
▁Ambasador 419
▁Press 419
▁alert 419
▁ina 419
▁locului 419
▁nere 419
gging 418
rta 418
▁Ang 418
▁avocat 418
▁cari 418
▁gata 418
▁mortal 418
▁specialist 418
tant 417
tiere 417
▁11. 417
▁Ibrahim 417
▁Rama 417
▁applicable 417
▁descoperi 417
▁length 417
▁patient 417
▁sad 417
Sch 416
ets 416
nesc 416
▁(8 416
▁Sp 416
▁divizi 416
▁jur 416
▁pirat 416
▁poet 416
▁privilegi 416
▁Alban 415
▁Baba 415
▁Marina 415
▁Northern 415
envisage 414
kee 414
▁(28 414
▁Fiecare 414
▁Vlad 414
▁instru 414
▁interesa 414
▁neap 414
▁recomandat 414
▁utilizator 414
▁vizitatori 414
ked 413
▁75% 413
▁Fon 413
▁Mustafa 413
▁Valentin 413
▁Well 413
▁departament 413
▁fairly 413
▁shape 413
▁website 413
-2013 412
daug 412
genera 412
isa 412
metri 412
shes 412
▁invent 412
▁reply 412
▁trigger 412
▁vo 412
emos 411
stein 411
tez 411
▁Mobil 411
▁Tele 411
▁haven 411
▁manifesta 411
▁procese 411
▁provo 411
▁une 411
▁visitors 411
▁Besi 410
▁trimit 410
lent 409
▁Chine 409
▁PSD 409
▁Peter 409
▁bas 409
▁confi 409
▁insult 409
▁prejudici 409
▁privacy 409
▁touch 409
iki 408
puls 408
suf 408
▁(4 408
▁Geo 408
▁Merc 408
▁accessible 408
▁chimic 408
▁differ 408
▁engagement 408
▁italien 408
▁love 408
▁purta 408
▁surrounding 408
▁vreodată 408
ANA 407
ences 407
▁Muha 407
▁artificial 407
▁censu 407
▁parallel 407
▁retail 407
▁seara 407
▁slu 407
▁smart 407
▁sos 407
Ex 406
ail 406
boj 406
fei 406
oval 406
ătură 406
▁Ante 406
▁Eco 406
▁complain 406
▁felicitat 406
▁imperial 406
▁insula 406
▁mobilitat 406
▁veche 406
af 405
bing 405
iding 405
intelligence 405
▁Gra 405
▁Mili 405
▁Perhaps 405
▁Petrov 405
▁fă 405
▁participar 405
▁sonda 405
▁Airlines 404
▁Chief 404
▁advanced 404
▁concurs 404
▁copilului 404
▁modest 404
▁tape 404
hor 403
institution 403
utum 403
▁Opera 403
▁Ziua 403
▁kurd 403
▁sânge 403
EB 402
cú 402
iche 402
law 402
vansa 402
▁33 402
▁Bloomberg 402
▁Luxembourg 402
▁Ms 402
▁atra 402
eficient 401
feld 401
work 401
▁Gu 401
▁Kal 401
▁accord 401
▁deriva 401
▁owners 401
▁survive 401
▁verificare 401
laden 400
Ș 400
▁Br 400
▁display 400
▁filme 400
▁redu 400
▁suport 400
▁veteran 400
▁virus 400
acord 399
dos 399
fo 399
gende 399
motiv 399
sek 399
▁abs 399
▁funda 399
▁hazard 399
▁inutil 399
▁movie 399
▁n 399
▁qualified 399
▁urgente 399
pres 398
▁Campania 398
▁Jurnal 398
▁Pia 398
▁Rexhep 398
▁attractive 398
▁capture 398
▁cultiva 398
▁expose 398
▁geopolit 398
▁pod 398
▁vârste 398
rit 397
tru 397
▁arrive 397
▁middle 397
▁plăcere 397
▁theatr 397
[ 396
bg 396
clu 396
▁Klaus 396
▁Lie 396
▁forecast 396
▁hoping 396
▁tour 396
NA 395
RD 395
habita 395
zional 395
▁Apoi 395
▁Guardian 395
▁Tu 395
▁anticip 395
▁bul 395
▁connected 395
▁discovered 395
▁liquid 395
▁throw 395
mail 394
▁(11 394
▁(7 394
▁Haradinaj 394
▁Lamp 394
▁bail 394
▁femeie 394
▁prudent 394
▁seal 394
Ni 393
VIT 393
▁Albert 393
▁Industry 393
▁advice 393
▁corespund 393
▁materi 393
▁mountain 393
▁watch 393
Z 392
cru 392
heu 392
lation 392
try 392
▁Board 392
▁Mag 392
▁Post 392
▁correspond 392
▁executa 392
▁storage 392
▁supplier 392
MP 391
ser 391
▁Capital 391
▁Popescu 391
▁Sahara 391
▁autobuz 391
▁drag 391
zb 390
▁Hur 390
▁Subiect 390
▁cantitate 390
▁insiste 390
▁proprietari 390
▁shu 390
▁versiune 390
aid 389
bed 389
gra 389
▁(2 389
▁Golf 389
▁Pot 389
▁norm 389
▁propriu 389
▁salva 389
ati 388
rest 388
▁46 388
▁Great 388
▁Produc 388
▁Ram 388
▁abia 388
▁char 388
▁opposite 388
▁standing 388
▁turne 388
ception 387
▁Res 387
▁SOL 387
▁Supreme 387
▁farmaceut 387
▁inteligente 387
▁ministeri 387
▁naviga 387
▁plata 387
▁professionals 387
▁scenario 387
▁wrote 387
NG 386
dire 386
ize 386
person 386
rova 386
▁47 386
▁Bil 386
▁civiliza 386
▁las 386
▁nano 386
▁preocupar 386
▁virtual 386
cot 385
financi 385
unde 385
▁38 385
▁Dje 385
▁atractiv 385
▁evacua 385
▁margine 385
▁pic 385
▁revine 385
Actual 384
nout 384
rant 384
sper 384
▁Sigur 384
▁Somalia 384
▁Sor 384
▁Venezuela 384
▁commun 384
▁consequ 384
▁miliard 384
▁nerez 384
▁sto 384
▁terrible 384
▁wake 384
fire 383
hof 383
nian 383
sphere 383
▁Nova 383
▁Through 383
▁chemical 383
▁coach 383
▁comentariile 383
▁inclusive 383
▁looks 383
▁miss 383
▁ren 383
-02 382
dian 382
print 382
solution 382
▁(25 382
▁(27 382
▁(29 382
▁Cultural 382
▁edition 382
▁facil 382
▁opp 382
gim 381
▁(20 381
▁Diploma 381
▁Nis 381
▁Sch 381
▁cite 381
▁ero 381
▁finished 381
▁neutral 381
▁producere 381
▁realizar 381
▁retras 381
dri 380
ig 380
sports 380
stock 380
▁Fina 380
▁Iată 380
▁SDS 380
▁Support 380
▁gambling 380
▁hidro 380
▁titlu 380
▁Bas 379
▁Legea 379
▁Lup 379
▁bronz 379
▁completa 379
▁dossier 379
▁expertise 379
▁fell 379
▁folosind 379
▁rig 379
▁store 379
lat 378
trust 378
▁2002. 378
▁Again 378
▁Pir 378
▁Region 378
▁accusa 378
▁atmosphere 378
▁margin 378
▁rute 378
▁suggestions 378
ances 377
ivit 377
liga 377
▁III 377
▁household 377
▁prominent 377
FE 376
cine 376
sels 376
writer 376
▁beat 376
▁lungi 376
▁regizor 376
▁split 376
▁str 376
ics 375
lunga 375
▁42 375
▁Kurdistan 375
▁Oz 375
▁Standard 375
▁Tin 375
▁bra 375
▁cast 375
▁conta 375
▁oferte 375
depth 374
him 374
lin 374
▁(22 374
▁Gi 374
▁Google 374
▁Sector 374
▁frequently 374
▁imp 374
▁posibilita 374
Tre 373
estima 373
keri 373
look 373
▁Citizen 373
▁Coelho 373
▁Pet 373
▁Stein 373
▁artistic 373
▁hectare 373
▁raw 373
but 372
cente 372
cile 372
▁cha 372
▁nepo 372
▁privilege 372
▁tenta 372
▁western 372
ghi 371
hev 371
mobiliar 371
preven 371
ranja 371
▁Eurovision 371
▁Femei 371
▁ample 371
▁scoate 371
▁surprise 371
▁telling 371
▁territori 371
osos 370
rc 370
tali 370
zko 370
▁(13 370
▁(26 370
▁Marko 370
▁Museum 370
▁connect 370
▁department 370
▁guard 370
▁islam 370
▁older 370
▁prostitu 370
ender 369
ore 369
▁(19 369
▁Beri 369
▁Ministerului 369
▁Three 369
▁Timp 369
▁corner 369
▁journey 369
▁reset 369
▁schi 369
chet 368
rende 368
veg 368
▁(16 368
▁Major 368
▁Negre 368
▁Pack 368
▁adaugă 368
▁ambasad 368
▁circ 368
▁fan 368
▁fier 368
▁solar 368
drag 367
gul 367
lean 367
versi 367
▁1999. 367
▁Legal 367
▁Leh 367
▁Orice 367
▁Os 367
▁rational 367
▁scenari 367
▁sim 367
▁visiting 367
news 366
▁defin 366
▁guilty 366
▁quanti 366
▁tran 366
So 365
arma 365
jani 365
runt 365
sal 365
tero 365
▁Election 365
▁Mor 365
▁clinic 365
▁outstanding 365
▁rigor 365
bashi 364
bond 364
root 364
▁Bel 364
▁confirma 364
▁lingvist 364
exist 363
ude 363
valent 363
vent 363
▁(24 363
▁Car 363
▁Chi 363
▁Facebook 363
▁Funda 363
▁Lama 363
▁Olimpiad 363
▁h 363
▁profesion 363
▁sanitar 363
▁symboli 363
▁vaca 363
▁vede 363
▁yes 363
Vojvod 362
▁(10 362
▁Basel 362
▁Nordic 362
▁Ora 362
▁deplasa 362
▁oră 362
▁sever 362
▁urmând 362
FP 361
GUE 361
tradition 361
▁Echipa 361
▁Integration 361
▁Technology 361
▁aferente 361
▁distance 361
▁numero 361
▁observation 361
▁recens 361
▁sal 361
fore 360
parte 360
zan 360
▁Hari 360
▁Multi 360
▁Negoci 360
▁Seven 360
▁Speaker 360
▁ende 360
▁fizic 360
▁modificat 360
▁motivat 360
▁nevi 360
▁preference 360
As 359
NR 359
US 359
kova 359
lah 359
net 359
nging 359
▁8. 359
▁Maro 359
▁Med 359
▁Schwarz 359
▁Xin 359
▁capitale 359
▁credito 359
▁equip 359
▁scan 359
▁syn 359
city 358
od 358
ons 358
▁Common 358
▁PC 358
▁Web 358
▁atmosfer 358
▁contin 358
▁dina 358
▁films 358
▁flo 358
▁legătura 358
▁ret 358
▁școală 358
% 357
bic 357
board 357
mpre 357
tics 357
▁Aleksandar 357
▁Moro 357
▁Opel 357
▁copil 357
▁disponibiliza 357
▁everybody 357
▁pose 357
▁poses 357
▁pământ 357
▁teams 357
▁twice 357
core 356
kon 356
politic 356
riat 356
▁110 356
▁1996 356
▁Azerb 356
▁Hol 356
▁documentar 356
▁fresh 356
▁relevan 356
▁stopped 356
▁vis 356
DF 355
fund 355
lev 355
▁Activ 355
▁Rural 355
▁arc 355
▁divi 355
▁experiment 355
▁permane 355
▁radi 355
▁slogan 355
▁surprised 355
▁trace 355
cial 354
rac 354
▁Administra 354
▁Church 354
▁Garri 354
▁Tomislav 354
▁analist 354
▁conducător 354
▁falls 354
▁specializat 354
▁temel 354
▁traduce 354
▁vârf 354
state 353
truck 353
▁1980 353
▁Der 353
▁entuziasm 353
▁intelligent 353
▁lux 353
▁milit 353
▁muni 353
▁natal 353
▁spark 353
▁stem 353
▁sympa 353
▁uc 353
cle 352
ide 352
system 352
▁Kat 352
▁Kr 352
▁Uganda 352
▁Zi 352
▁bro 352
▁creati 352
▁describe 352
▁disabled 352
▁invers 352
▁logistic 352
▁minimi 352
▁san 352
▁secundar 352
▁stick 352
▁visible 352
bian 351
ofer 351
tit 351
▁6% 351
▁Air 351
▁buni 351
▁consultar 351
▁friend 351
▁gross 351
▁inci 351
▁ochii 351
▁participant 351
giu 350
metric 350
nc 350
pl 350
▁Cost 350
▁Rome 350
▁accurate 350
▁aprofunda 350
▁carte 350
▁consuma 350
▁fizice 350
▁ham 350
▁insa 350
▁oricine 350
▁pagini 350
▁smooth 350
▁weight 350
craft 349
fon 349
mas 349
open 349
siu 349
▁Energie 349
▁alimenta 349
▁books 349
▁fatal 349
▁march 349
▁ordon 349
▁polițiști 349
▁recommended 349
▁ruin 349
▁secretaria 349
▁terminat 349
25 348
▁(14 348
▁1,000 348
▁Combat 348
▁Ker 348
▁banc 348
▁enorme 348
▁fix 348
▁preferi 348
▁solide 348
▁tac 348
GA 347
misi 347
orientation 347
usias 347
▁biserici 347
▁duc 347
▁metoda 347
▁sinergi 347
bul 346
cord 346
oanele 346
vest 346
yes 346
▁Having 346
▁Initiative 346
▁Mauri 346
▁Mayor 346
▁Southern 346
▁ending 346
▁heat 346
▁stream 346
▁t 346
dinta 345
marked 345
nger 345
▁Bre 345
▁Clima 345
▁Pod 345
▁White 345
▁disappointed 345
▁diz 345
▁fundament 345
▁tul 345
bre 344
ery 344
eve 344
winning 344
▁Mont 344
▁Ra 344
▁Real 344
▁Svet 344
▁Text 344
▁registration 344
▁sing 344
▁usually 344
TF 343
asa 343
human 343
used 343
vez 343
▁Afri 343
▁Koz 343
▁bog 343
▁distribuit 343
▁fericire 343
▁hea 343
▁inutile 343
▁shop 343
lj 342
mbra 342
ok 342
thi 342
▁Alb 342
▁Madrid 342
▁autentic 342
▁caracteriza 342
▁dubi 342
▁straight 342
Po 341
anu 341
round 341
ury 341
▁Para 341
▁appeared 341
▁cand 341
▁dedicated 341
▁dream 341
▁liv 341
▁tuna 341
▁voci 341
▁900 340
▁Critic 340
▁Deutsche 340
▁FBiH 340
▁messages 340
▁notes 340
▁origina 340
AF 339
voir 339
▁Rice 339
▁chi 339
▁competente 339
▁gam 339
▁lumin 339
▁ministri 339
▁reserva 339
▁statu 339
▁variety 339
terror 338
▁1993 338
▁Federal 338
▁models 338
▁signature 338
▁sorry 338
▁spot 338
▁vinde 338
adaptation 337
▁44 337
▁Anal 337
▁College 337
▁Expo 337
▁Maria 337
▁Millennium 337
▁cl 337
▁clasifica 337
▁editor 337
▁medicinal 337
▁orizont 337
▁plecat 337
▁preferat 337
▁raid 337
UN 336
moon 336
realist 336
scrip 336
uge 336
vide 336
▁2001. 336
▁Competi 336
▁apare 336
▁demande 336
▁perse 336
▁plin 336
▁stip 336
cele 335
mor 335
sis 335
ures 335
ână 335
▁Bulg 335
▁Ge 335
▁Network 335
▁Operation 335
▁Peti 335
▁Pul 335
▁Rein 335
▁arhitect 335
▁ascuns 335
▁cadre 335
▁chances 335
▁consul 335
▁judecată 335
▁satisfaction 335
aks 334
▁Institu 334
▁SDP 334
▁dure 334
▁explora 334
▁isola 334
▁pill 334
▁siguri 334
▁zilei 334
,7% 333
Pentru 333
anda 333
lier 333
pren 333
usta 333
▁Bay 333
▁Mon 333
▁abo 333
▁compris 333
▁defect 333
▁exhaust 333
▁ofici 333
▁programmi 333
▁recuperare 333
▁suporte 333
▁tren 333
Wal 332
effect 332
lum 332
▁Mer 332
▁Microsoft 332
▁Pla 332
▁automobil 332
▁donation 332
▁entertainment 332
▁il 332
▁moderni 332
▁oprit 332
▁seminar 332
▁tab 332
▁tutun 332
ACE 331
IC 331
SL 331
aju 331
crit 331
sko 331
▁Bahrain 331
▁Budapest 331
▁Guvern 331
▁Tribun 331
▁evidente 331
▁gras 331
▁implementar 331
▁moarte 331
▁profil 331
▁ski 331
▁slightly 331
DC 330
Est 330
cris 330
mat 330
▁Ste 330
▁Zu 330
▁articole 330
▁porto 330
▁produsul 330
▁simboli 330
▁suspens 330
▁voie 330
▁wall 330
dit 329
kola 329
tec 329
volt 329
▁Alt 329
▁Angel 329
▁Ap 329
▁Dator 329
▁Zaman 329
▁disrupt 329
▁fate 329
▁fill 329
▁necessarily 329
▁reme 329
▁restitu 329
▁ul 329
TV 328
ai 328
arta 328
eau 328
head 328
iel 328
lad 328
session 328
▁(30 328
▁Nigeria 328
▁ke 328
▁lie 328
▁luar 328
▁metal 328
Gu 327
inta 327
isolation 327
▁Conce 327
▁Cô 327
▁Relation 327
▁gets 327
▁impresion 327
▁marcat 327
▁periodic 327
CC 326
ljub 326
organisme 326
rge 326
ya 326
▁350 326
▁41 326
▁Innovation 326
▁Investiga 326
▁Sand 326
▁ath 326
▁captura 326
▁hydro 326
▁parent 326
▁vehicle 326
bet 325
duce 325
enko 325
mes 325
sumi 325
▁BER 325
▁Expert 325
▁Gui 325
▁Irland 325
▁Ukrain 325
▁bat 325
▁comparison 325
▁corporate 325
▁imagina 325
▁omen 325
▁regularly 325
▁shot 325
1999 324
Count 324
NATO 324
ador 324
ani 324
born 324
cen 324
form 324
salon 324
▁Salon 324
▁database 324
▁provisional 324
▁sacrifice 324
▁titlul 324
▁voca 324
▁write 324
44 323
Assad 323
You 323
loc 323
sport 323
tarian 323
▁River 323
▁căzut 323
▁diagnostic 323
▁secolului 323
card 322
nite 322
uda 322
▁Boc 322
▁City 322
▁Movement 322
▁afternoon 322
▁ambas 322
▁gro 322
▁pira 322
▁trec 322
bind 321
dal 321
flex 321
gs 321
ple 321
telecom 321
▁Analys 321
▁Angela 321
▁Dubrovnik 321
▁Time 321
▁associations 321
▁citit 321
▁evitare 321
▁oferta 321
▁wrap 321
Le 320
MIA 320
▁Communication 320
▁Richard 320
▁att 320
▁coup 320
▁liter 320
▁mafi 320
▁rose 320
▁scăpa 320
para 319
stry 319
ych 319
▁Nano 319
▁Super 319
▁Viz 319
▁Vol 319
▁Vreau 319
▁Youth 319
▁bogate 319
▁fez 319
▁născut 319
communica 318
date 318
iyet 318
structure 318
thir 318
▁CHP 318
▁Independen 318
▁Moi 318
▁Poz 318
▁Tro 318
▁ach 318
▁manufacturing 318
▁warrant 318
▁îmbră 318
Li 317
registru 317
serv 317
▁Bla 317
▁Dane 317
▁Does 317
▁Guinea 317
▁Theatre 317
▁commemora 317
▁destin 317
▁incide 317
▁panel 317
▁pi 317
▁înscris 317
eret 316
miss 316
plu 316
▁1997 316
▁39 316
▁Campionat 316
▁Polo 316
▁Spre 316
▁accomplish 316
▁coincid 316
▁componente 316
▁iranian 316
▁museum 316
▁suporta 316
▁talent 316
Prin 315
condi 315
llow 315
▁2000. 315
▁Evident 315
▁Kaza 315
▁Militar 315
▁austriac 315
▁benchmark 315
▁blow 315
▁quo 315
clam 314
gor 314
hua 314
ili 314
ptic 314
▁Pap 314
▁amestec 314
▁ecosistem 314
▁experiences 314
▁grade 314
▁premis 314
▁vari 314
lised 313
thy 313
▁Bogdan 313
▁Ili 313
▁Kyoto 313
▁Pas 313
▁categoria 313
▁embargo 313
▁hur 313
▁stil 313
50,000 312
break 312
end 312
opter 312
▁Adrian 312
▁Anton 312
▁Herald 312
▁Minor 312
▁Please 312
▁administrator 312
▁certificate 312
▁incur 312
▁notice 312
▁rec 312
▁recruit 312
▁timpului 312
ages 311
uros 311
▁130 311
▁Area 311
▁Burg 311
▁dual 311
▁surprins 311
cula 310
vate 310
▁49 310
▁Ferrer 310
▁Tas 310
▁escape 310
▁famous 310
▁learned 310
▁scrie 310
▁selling 310
▁upgrade 310
▁Še 310
+ 309
har 309
ters 309
▁13. 309
▁142 309
▁Ak 309
▁Andri 309
▁Tak 309
▁antre 309
▁cas 309
▁complement 309
▁equi 309
▁exagera 309
▁index 309
▁rap 309
▁sight 309
anti 308
dui 308
hid 308
ms 308
night 308
▁8% 308
▁Berlusconi 308
▁Medvedev 308
▁Motor 308
▁buying 308
▁candidatura 308
▁catre 308
▁transformation 308
bold 307
ography 307
▁51 307
▁Author 307
▁Marija 307
▁Sul 307
▁bogat 307
▁gospod 307
▁halt 307
▁mam 307
▁permanente 307
▁plec 307
▁proclama 307
fol 306
fur 306
lied 306
rich 306
rum 306
vazi 306
▁1990. 306
▁Cad 306
▁Fü 306
▁Mark 306
▁feminin 306
▁innocent 306
▁profite 306
▁reputa 306
fel 305
▁Championship 305
▁Câ 305
▁Observa 305
▁Pol 305
▁box 305
▁cifra 305
▁crezut 305
▁cycle 305
▁elev 305
▁facili 305
▁formation 305
▁mie 305
▁pet 305
▁prevenir 305
▁suit 305
archae 304
instal 304
nes 304
rom 304
see 304
torial 304
▁Cine 304
▁bala 304
▁blas 304
▁explore 304
▁imagini 304
▁organi 304
▁pu 304
▁toleran 304
▁trimestr 304
▁vrut 304
all 303
fla 303
nei 303
radi 303
rci 303
station 303
ttoman 303
vada 303
▁2015. 303
▁League 303
▁Marin 303
▁Teh 303
▁circa 303
▁dra 303
▁minunat 303
▁muze 303
▁noapte 303
▁repara 303
▁tract 303
Alba 302
mda 302
square 302
wal 302
▁66 302
▁Street 302
▁discute 302
▁fixed 302
▁perfectly 302
9 301
ej 301
▁Fo 301
▁Frank 301
▁Norveg 301
▁born 301
▁exit 301
▁oricare 301
▁paradis 301
▁thousand 301
contract 300
rem 300
trac 300
▁140 300
▁Nag 300
▁Slovak 300
▁contesta 300
▁diverti 300
▁impet 300
▁nave 300
▁veterinar 300
▁zilele 300
RT 299
rang 299
▁Senat 299
▁Teatr 299
▁audio 299
▁bord 299
▁folosește 299
▁formul 299
▁fri 299
▁găsesc 299
▁pays 299
▁scump 299
▁terminal 299
▁ulterioare 299
log 298
zek 298
▁Bele 298
▁Maritim 298
▁aparent 298
▁cereal 298
▁distinct 298
▁hot 298
6-0 297
dle 297
▁Nas 297
▁Process 297
▁assign 297
▁faza 297
▁forgotten 297
▁nep 297
▁redes 297
▁teachers 297
▁teste 297
autonomie 296
cian 296
owski 296
pan 296
ulia 296
▁Afg 296
▁Vukovar 296
▁aruncat 296
▁nomina 296
MS 295
Ordine 295
grav 295
prire 295
é 295
▁Ab 295
▁Daily 295
▁Journal 295
▁Luxemburg 295
▁Norway 295
▁Swiss 295
▁Thailand 295
▁eligible 295
▁fans 295
AKI 294
TA 294
bli 294
secret 294
sula 294
tian 294
▁Japanese 294
▁Krasniqi 294
▁Prag 294
▁abil 294
▁dominant 294
▁donat 294
▁equivalent 294
▁indispensabil 294
▁ti 294
Com 293
conecta 293
ee 293
hand 293
mate 293
poli 293
▁85 293
▁Denmark 293
▁Face 293
▁Pav 293
▁gratuit 293
▁ordini 293
▁paradox 293
▁serii 293
/2006 292
TS 292
ates 292
isan 292
polis 292
▁Comunica 292
▁camere 292
▁engleză 292
▁fertil 292
▁posed 292
▁prematur 292
▁progressive 292
▁trecerea 292
▁ucrain 292
▁zones 292
PE 291
Vi 291
stur 291
▁Cal 291
▁Jacques 291
▁Muzeul 291
▁Protest 291
▁elementar 291
▁fly 291
▁neu 291
▁profesori 291
▁restaur 291
▁spectrum 291
▁victoria 291
▁vina 291
OS 290
biri 290
nego 290
scribe 290
▁1,5 290
▁Lukas 290
▁Natural 290
▁RT 290
▁absent 290
▁civic 290
▁fericit 290
▁prevederilor 290
▁pâ 290
▁vremea 290
▁wo 290
CG 289
bro 289
laps 289
late 289
matic 289
ote 289
ua 289
with 289
▁Camera 289
▁Rac 289
▁Roh 289
▁Subject 289
▁Vietnam 289
▁article 289
▁avion 289
▁belo 289
▁container 289
▁license 289
▁stradă 289
▁usual 289
berg 288
ete 288
tif 288
▁Chance 288
▁Pen 288
▁Saudi 288
▁Serge 288
▁discover 288
▁prietenii 288
▁runs 288
▁sezon 288
▁wild 288
Gre 287
fere 287
occupation 287
▁& 287
▁7% 287
▁Adevăr 287
▁Tax 287
▁aprobar 287
▁listed 287
▁verifica 287
EI 286
MO 286
ps 286
▁Casa 286
▁Catherine 286
▁Sem 286
▁autori 286
▁consulte 286
▁defender 286
▁lit 286
▁momente 286
▁rectifica 286
▁redistribu 286
▁scriitor 286
▁sha 286
▁shipping 286
ij 285
ika 285
inter 285
orient 285
tti 285
âne 285
▁Kos 285
▁commodi 285
▁destabiliz 285
▁disciplina 285
▁emo 285
▁finger 285
▁hopefully 285
▁inima 285
▁soldat 285
aria 284
gâ 284
ibili 284
ovat 284
spicio 284
tera 284
▁2014. 284
▁Command 284
▁Ion 284
▁Jadran 284
▁Legisla 284
▁Prezent 284
▁Rol 284
▁alcool 284
▁cad 284
▁customers 284
▁fusese 284
▁pull 284
▁repair 284
defini 283
iti 283
kin 283
vei 283
▁Educa 283
▁Occidental 283
▁Probleme 283
▁Rus 283
▁Vu 283
▁basically 283
▁degrada 283
▁egipt 283
▁fit 283
▁inspector 283
▁porn 283
▁resim 283
▁teatru 283
▁vas 283
▁winter 283
ILO 282
Occident 282
▁Asta 282
▁Dal 282
▁Dire 282
▁Edi 282
▁Kemal 282
▁Meta 282
▁Sila 282
▁Sports 282
▁arte 282
▁drink 282
▁hat 282
▁relief 282
▁reward 282
Ka 281
bra 281
ila 281
letes 281
llu 281
vey 281
▁EE 281
▁Son 281
▁apa 281
▁aparat 281
▁plină 281
▁rhe 281
▁telefonic 281
alis 280
bos 280
jord 280
▁Condi 280
▁Idee 280
▁Rum 280
▁apartament 280
▁bri 280
▁cards 280
▁clase 280
▁enjoyed 280
▁excuse 280
▁hour 280
▁informatic 280
▁negle 280
▁qua 280
▁seconda 280
ative 279
ech 279
pici 279
plas 279
▁1.5 279
▁Prague 279
▁Professor 279
▁confe 279
▁elit 279
▁japon 279
▁jos 279
▁looked 279
▁nes 279
▁prud 279
▁tortura 279
EA 278
cini 278
eaza 278
keeper 278
ndu 278
ometri 278
pil 278
sat 278
stel 278
▁Blair 278
▁Electoral 278
▁Kom 278
▁cash 278
▁citi 278
▁corupt 278
▁handling 278
▁prelucra 278
▁telephone 278
claim 277
▁53 277
▁DU 277
▁antibiotic 277
▁dama 277
▁glob 277
▁precari 277
▁profesionist 277
▁recurs 277
▁relationships 277
KLA 276
eg 276
initiative 276
▁56 276
▁Des 276
▁Franco 276
▁Staff 276
▁apparent 276
▁apropia 276
▁bigger 276
▁comunism 276
▁remit 276
▁serioz 276
▁tu 276
15 275
ESE 275
ah 275
cela 275
cev 275
hem 275
▁Asisten 275
▁Clear 275
▁Telecom 275
▁Who 275
▁compar 275
▁cosmetic 275
▁diaspor 275
▁encounter 275
▁everywhere 275
▁fines 275
▁novel 275
▁soviet 275
▁texte 275
IDA 274
ben 274
centr 274
centre 274
dol 274
lise 274
space 274
stop 274
▁Corre 274
▁attribut 274
▁deposit 274
▁fibre 274
▁impar 274
▁indice 274
▁indici 274
▁patra 274
▁piese 274
▁studia 274
▁sugar 274
▁totdeauna 274
ada 273
burg 273
nev 273
pho 273
trans 273
tuan 273
▁Bir 273
▁Lips 273
▁Malaysia 273
▁Privat 273
▁afacere 273
▁căsători 273
▁dispozitiv 273
▁frustra 273
▁ill 273
▁sho 273
▁stood 273
Her 272
privat 272
tribute 272
urat 272
zani 272
▁54 272
▁Bureau 272
▁Camp 272
▁Credit 272
▁Gross 272
▁Itali 272
▁Samar 272
▁concentration 272
▁dog 272
▁interval 272
▁parc 272
▁pleasure 272
▁preserva 272
IPA 271
cident 271
company 271
▁Baron 271
▁Lima 271
▁SEA 271
▁doesn 271
▁hâ 271
▁kg 271
▁portal 271
▁reabilit 271
Vor 270
▁Welle 270
▁audience 270
▁gol 270
▁lived 270
▁pierd 270
▁roll 270
▁rost 270
▁tsunami 270
▁utile 270
TES 269
ctu 269
made 269
ounded 269
sorti 269
▁disabili 269
▁functional 269
▁petrece 269
▁selected 269
▁vul 269
▁zid 269
arrow 268
art 268
fact 268
fold 268
mant 268
râm 268
tures 268
▁Explica 268
▁NU 268
▁Univers 268
▁aqua 268
▁comentariu 268
▁drew 268
▁illustra 268
▁irre 268
▁nenu 268
▁plante 268
▁tentative 268
); 267
PP 267
pina 267
▁27- 267
▁DS 267
▁Each 267
▁Unga 267
▁acumula 267
▁aparte 267
▁aus 267
▁copyright 267
▁lever 267
▁strain 267
LV 266
bank 266
besc 266
ccup 266
rite 266
tici 266
yz 266
▁Gj 266
▁Ke 266
▁List 266
▁Management 266
▁celebration 266
▁engine 266
▁pov 266
▁priva 266
▁profession 266
▁profile 266
▁respectiva 266
▁storm 266
eta 265
evit 265
igi 265
lej 265
vac 265
zak 265
▁52 265
▁Del 265
▁LDK 265
▁Prior 265
▁Ya 265
▁acordar 265
▁corpora 265
▁exterior 265
▁publication 265
▁survival 265
▁worried 265
chten 264
uma 264
uzi 264
▁Abo 264
▁Administration 264
▁Far 264
▁Similar 264
▁Society 264
▁Tuzla 264
▁bottom 264
▁expedi 264
▁memoria 264
▁populist 264
▁teri 264
▁travers 264
Bu 263
cite 263
tation 263
vare 263
▁Aproape 263
▁Organis 263
▁Pu 263
▁Studies 263
▁Vet 263
▁barbar 263
▁caught 263
▁firma 263
▁pick 263
▁registr 263
▁struggling 263
pete 262
phan 262
ung 262
▁Dialog 262
▁Dora 262
▁Luna 262
▁Ori 262
▁Question 262
▁Yi 262
▁costa 262
▁educat 262
▁profesi 262
▁slova 262
▁totale 262
eanu 261
gia 261
mentar 261
pone 261
zim 261
▁Atom 261
▁Barack 261
▁Club 261
▁Ves 261
▁brother 261
▁fallen 261
▁gang 261
▁prolifera 261
▁utilizatorilor 261
CO 260
dir 260
kistan 260
nimo 260
tempor 260
▁Access 260
▁Base 260
▁Bill 260
▁Met 260
▁Proc 260
▁Rasi 260
▁crowd 260
▁filial 260
▁meciul 260
▁militant 260
▁mos 260
▁rachete 260
▁vol 260
!" 259
estre 259
onis 259
reach 259
sca 259
ucht 259
uza 259
vale 259
▁Export 259
▁Hy 259
▁Kor 259
▁Prizren 259
▁ampla 259
▁cit 259
▁excelente 259
▁fault 259
▁plastic 259
▁suggestion 259
▁varia 259
▁virtu 259
But 258
He 258
even 258
hia 258
▁Canadian 258
▁Madagascar 258
▁Prop 258
▁Raj 258
▁Solu 258
▁ez 258
▁ide 258
▁maintenance 258
▁studie 258
▁înscrie 258
▁2014 257
▁Maastricht 257
▁Recovery 257
▁aviat 257
▁collabora 257
▁compatible 257
▁deri 257
▁linia 257
▁lunar 257
▁posts 257
▁wife 257
Med 256
NP 256
RC 256
br 256
tas 256
zor 256
▁1995. 256
▁CI 256
▁blind 256
▁bonus 256
▁comemora 256
▁deasupra 256
▁disco 256
▁disturb 256
▁pit 256
▁religio 256
▁risi 256
▁smo 256
heart 255
worth 255
▁James 255
▁brand 255
▁editorial 255
▁hra 255
▁machine 255
-20 254
PIC 254
cure 254
eld 254
ff 254
nele 254
sser 254
tene 254
▁Basha 254
▁Gen 254
▁López 254
▁McC 254
▁bought 254
▁casă 254
▁cursuri 254
▁exemplar 254
▁helpful 254
▁swe 254
02 253
olo 253
social 253
ue 253
▁Erasmus 253
▁Executive 253
▁Honduras 253
▁Motiv 253
▁Star 253
▁metres 253
▁negat 253
▁psycholog 253
▁sportive 253
adi 252
ath 252
bas 252
bele 252
cara 252
dige 252
elle 252
▁170 252
▁Cher 252
▁Dia 252
▁Import 252
▁Jordan 252
▁Minsk 252
▁Persoan 252
▁centrala 252
▁clima 252
▁neob 252
aptitud 251
epe 251
far 251
gress 251
inc 251
tase 251
win 251
zne 251
▁Academy 251
▁Add 251
▁Ple 251
▁Respect 251
▁boat 251
▁conscience 251
▁directo 251
▁expira 251
▁jazz 251
▁park 251
KK 250
ched 250
here 250
iera 250
sie 250
some 250
▁Gau 250
▁Rap 250
▁Sava 250
▁abort 250
▁elite 250
▁yi 250
az 249
bent 249
ks 249
vise 249
▁Cap 249
▁Clo 249
▁Ef 249
▁Ger 249
▁King 249
▁Miro 249
▁SNS 249
▁master 249
▁monopoli 249
cycling 248
elles 248
entitat 248
gestion 248
sau 248
suit 248
uz 248
wor 248
▁Kalla 248
▁Out 248
▁Vis 248
▁cell 248
▁cenzur 248
▁crack 248
▁daun 248
▁frequent 248
▁frun 248
▁games 248
▁miles 248
▁pove 248
▁sce 248
An 247
SD 247
architecture 247
enter 247
friendly 247
onen 247
wan 247
▁Congress 247
▁Galileo 247
▁Heritage 247
▁IC 247
▁Municipal 247
▁Regi 247
▁detaliile 247
▁digitale 247
▁distingui 247
▁hypo 247
▁nurse 247
▁presta 247
▁ranking 247
▁reputation 247
gub 246
mind 246
rozen 246
č 246
▁11% 246
▁Alfred 246
▁Bild 246
▁God 246
▁Mus 246
▁Republican 246
▁Talk 246
▁Tom 246
▁biologi 246
▁flat 246
▁plăcut 246
▁precedente 246
▁telefon 246
▁veri 246
TER 245
entia 245
field 245
isten 245
mbu 245
▁Ave 245
▁Bord 245
▁Code 245
▁Gas 245
▁Part 245
▁centuri 245
▁detect 245
▁federa 245
▁pertinent 245
▁weather 245
isti 244
▁Catholic 244
▁Constru 244
▁coca 244
▁comme 244
▁cursa 244
▁delivery 244
▁differenti 244
▁manevr 244
▁monthly 244
▁outra 244
▁toll 244
ball 243
war 243
▁15. 243
▁57 243
▁Ambasad 243
▁Rasmussen 243
▁Shi 243
▁Your 243
▁absolv 243
▁alcohol 243
▁automatic 243
▁excel 243
▁girls 243
▁holder 243
▁impro 243
▁mode 243
▁requiri 243
Cu 242
best 242
gare 242
lica 242
tima 242
▁14. 242
▁Auto 242
▁Cas 242
▁Les 242
▁Mission 242
▁Span 242
▁UNICEF 242
▁alter 242
▁cin 242
▁dân 242
▁selection 242
▁transmission 242
3,000 241
bol 241
identifi 241
outlook 241
pentru 241
vaz 241
▁(1) 241
▁Kro 241
▁Order 241
▁Sak 241
▁brusc 241
▁cinematograf 241
▁consequent 241
▁hal 241
▁horizontal 241
▁numer 241
▁ocean 241
▁opere 241
▁organiser 241
cover 240
hea 240
hil 240
lingu 240
ls 240
trof 240
vel 240
▁Es 240
▁Industria 240
▁Kan 240
▁Poll 240
▁Up 240
▁banca 240
▁intim 240
▁listening 240
▁medieval 240
▁portfolio 240
▁rugăm 240
▁sat 240
▁secund 240
▁silver 240
▁translation 240
Ben 239
access 239
existent 239
hat 239
nding 239
ose 239
sura 239
▁Lib 239
▁Michel 239
▁OL 239
▁Though 239
▁anywhere 239
▁persoana 239
▁recicla 239
Sa 238
cov 238
nous 238
scription 238
torium 238
▁64 238
▁Arre 238
▁Change 238
▁Copii 238
▁Date 238
▁Kale 238
▁Promo 238
▁applica 238
▁esse 238
▁frank 238
▁sue 238
FB 237
What 237
cz 237
▁Children 237
▁Thanks 237
▁composition 237
▁gian 237
▁intent 237
▁roman 237
▁tari 237
▁tehnici 237
▁yourself 237
peti 236
ph 236
titude 236
vede 236
▁1994 236
▁63 236
▁Ho 236
▁Platform 236
▁Recon 236
▁concilia 236
▁dan 236
▁desperat 236
▁empty 236
▁propaganda 236
▁sin 236
▁zahăr 236
ece 235
lja 235
xhi 235
▁58 235
▁Anatoli 235
▁Val 235
Ali 234
CI 234
change 234
sin 234
sson 234
▁Arabia 234
▁Mos 234
▁decidi 234
▁masculin 234
▁rede 234
▁vara 234
Av 233
SU 233
fra 233
git 233
nder 233
▁(31 233
▁62 233
▁72 233
▁Dec 233
▁Hoxha 233
▁Probabil 233
▁Should 233
▁Utiliza 233
▁ata 233
▁bilan 233
▁broken 233
▁complici 233
▁imparti 233
▁muzică 233
▁volunteer 233
▁white 233
els 232
fs 232
identification 232
las 232
lifting 232
plac 232
ringe 232
▁Haj 232
▁answered 232
▁arma 232
▁bombard 232
▁coverage 232
▁manual 232
▁patron 232
▁slave 232
▁venture 232
bere 231
lla 231
tola 231
▁Avia 231
▁Boy 231
▁Sky 231
▁apparently 231
▁asistent 231
▁challenging 231
▁contabil 231
▁gar 231
▁ingin 231
▁loi 231
▁modele 231
▁pana 231
▁pasi 231
▁shake 231
▁tin 231
▁ura 231
APE 230
asset 230
iese 230
mber 230
osis 230
sso 230
▁1970 230
▁95 230
▁Anadolu 230
▁Apart 230
▁Burn 230
▁Rata 230
▁Spir 230
▁antico 230
▁distinctio 230
▁figur 230
▁flagrant 230
▁prost 230
▁reca 230
▁recruta 230
▁semi 230
▁silence 230
▁subur 230
baki 229
bla 229
chas 229
imo 229
jer 229
ques 229
▁Chile 229
▁Company 229
▁Data 229
▁Og 229
▁Sala 229
▁Simeon 229
▁bran 229
▁bărbat 229
▁oma 229
▁rough 229
▁smoking 229
▁spo 229
kha 228
lete 228
muk 228
novo 228
ove 228
strategi 228
volta 228
▁17% 228
▁Oliver 228
▁Zo 228
▁adaptar 228
▁anno 228
▁arriva 228
▁colo 228
▁comparable 228
▁câmp 228
▁enda 228
▁limitation 228
▁output 228
▁provok 228
▁rain 228
▁slowly 228
▁temperature 228
-2010 227
EF 227
arat 227
die 227
distan 227
dro 227
gies 227
ida 227
owe 227
sco 227
ule 227
ult 227
▁Drug 227
▁Mare 227
▁PDK 227
▁Ye 227
▁concorda 227
▁infection 227
▁interrupt 227
frica 226
fun 226
local 226
mbol 226
organi 226
prezent 226
▁EN 226
▁Electric 226
▁Mora 226
▁Sveto 226
▁Verde 226
▁cyber 226
▁dupa 226
▁inde 226
▁operativ 226
▁procura 226
▁proprietar 226
▁rezerva 226
▁universitar 226
act 225
anie 225
cip 225
solu 225
wer 225
▁Ant 225
▁Jelen 225
▁Kur 225
▁casa 225
▁continuo 225
▁inspir 225
▁modifi 225
▁ono 225
▁pis 225
▁psihologi 225
▁verzi 225
2. 224
cha 224
cio 224
ison 224
riu 224
ush 224
▁(" 224
▁16% 224
▁Drago 224
▁Future 224
▁Luk 224
▁Luki 224
▁Simp 224
▁centr 224
▁debut 224
▁defende 224
▁drill 224
▁install 224
▁motto 224
▁ofert 224
▁pomp 224
▁substitut 224
OC 223
dress 223
sky 223
vigil 223
▁Arc 223
▁Dome 223
▁Fair 223
▁Hi 223
▁Judi 223
▁agro 223
▁bel 223
▁convo 223
▁descend 223
▁fructe 223
▁ghe 223
▁indis 223
▁organizatori 223
▁recipient 223
▁revend 223
▁rid 223
Din 222
aring 222
logist 222
produc 222
ws 222
▁16. 222
▁Articolul 222
▁Ashraf 222
▁IP 222
▁Petr 222
▁Poor 222
▁Sin 222
▁Sport 222
▁Tru 222
▁agresiv 222
▁autonomia 222
▁bases 222
▁comenta 222
▁estate 222
▁grand 222
▁installation 222
▁razboi 222
▁spăl 222
▁supermarket 222
▁tonight 222
▁trase 222
Ce 221
bie 221
cel 221
cko 221
lina 221
mn 221
rect 221
vy 221
zing 221
▁Corri 221
▁Ocean 221
▁Petrol 221
▁apartment 221
▁fosil 221
▁fruct 221
▁hos 221
▁mile 221
▁recomand 221
▁salarial 221
▁satelit 221
▁spiritual 221
▁suc 221
ME 220
ien 220
lik 220
maker 220
mun 220
vlje 220
▁81 220
▁Assist 220
▁Emil 220
▁Fara 220
▁Helsinki 220
▁Korean 220
▁Miha 220
▁Nicolas 220
▁Project 220
▁Pune 220
▁Sven 220
▁energi 220
▁filmul 220
▁medici 220
▁minore 220
▁tăi 220
PD 219
ROM 219
bd 219
minut 219
mus 219
zza 219
▁180 219
▁Von 219
▁culmina 219
▁faire 219
▁fii 219
▁indigna 219
▁input 219
▁spunea 219
▁telefoane 219
▁veste 219
hal 218
lending 218
nska 218
tore 218
▁2,000 218
▁78 218
▁Cali 218
▁Fiind 218
▁Finn 218
▁Indian 218
▁RE 218
▁Still 218
▁admira 218
▁arena 218
▁autorit 218
▁coin 218
▁complica 218
▁marriage 218
▁proba 218
▁rally 218
▁satellit 218
▁screening 218
▁tennis 218
▁trist 218
jon 217
security 217
tania 217
trice 217
▁35% 217
▁Brown 217
▁Lambert 217
▁Transfer 217
▁asociat 217
▁descurc 217
▁enabled 217
▁furi 217
▁horse 217
▁incredibil 217
▁maybe 217
▁organizar 217
▁pieces 217
▁poți 217
▁progresiv 217
▁rub 217
▁servant 217
All 216
NIS 216
bog 216
cultura 216
group 216
omis 216
pied 216
start 216
through 216
▁Den 216
▁Dim 216
▁Financi 216
▁Six 216
▁Sloven 216
▁XXI 216
▁allo 216
▁armi 216
▁bombe 216
▁disse 216
▁fossil 216
▁implicit 216
▁laborator 216
▁nepre 216
▁orchestr 216
Europe 215
FA 215
FF 215
censor 215
fond 215
mana 215
termin 215
tivi 215
yard 215
▁Banka 215
▁Cara 215
▁Proiect 215
▁bolnav 215
▁didn 215
▁heroin 215
▁respondent 215
▁română 215
▁sf 215
COM 214
chan 214
philosoph 214
▁2015 214
▁Focus 214
▁argint 214
▁combination 214
▁genero 214
▁pacient 214
▁reclama 214
▁reparti 214
▁sportivi 214
▁vigila 214
▁wood 214
LS 213
Poli 213
blo 213
develop 213
enzi 213
gust 213
shop 213
spe 213
und 213
▁61 213
▁Argentina 213
▁Condo 213
▁Fil 213
▁Gaz 213
▁Gol 213
▁Mircea 213
▁Reforma 213
▁Sax 213
▁consecutiv 213
▁diversitat 213
▁everyday 213
▁offshore 213
▁împlini 213
/2011 212
BH 212
ET 212
enses 212
ld 212
sexual 212
▁Recu 212
▁prac 212
▁ran 212
▁sculpt 212
▁switch 212
▁uitat 212
gger 211
lux 211
stria 211
▁15- 211
▁Annu 211
▁Ev 211
▁ag 211
▁camera 211
▁fata 211
▁finland 211
▁genital 211
▁infantil 211
▁invoca 211
▁olim 211
▁oto 211
build 210
ios 210
mini 210
rati 210
trop 210
▁Ljubljana 210
▁Vec 210
▁gear 210
▁ortodox 210
▁prestigio 210
▁song 210
7,000 209
KIP 209
TEN 209
align 209
excellence 209
lee 209
limit 209
paid 209
thing 209
went 209
▁160 209
▁Amnesty 209
▁Governo 209
▁Holding 209
▁bin 209
▁chaos 209
▁cigarette 209
▁consacra 209
▁corporation 209
▁knew 209
▁mold 209
▁natur 209
▁rehabilita 209
clave 208
eu 208
▁Fischer 208
▁Jud 208
▁Kamp 208
▁Mubarak 208
▁Tr 208
▁b 208
▁noaptea 208
▁ultimi 208
Continu 207
eno 207
meta 207
profit 207
tiin 207
tune 207
▁1974 207
▁1991. 207
▁Ade 207
▁Award 207
▁Cat 207
▁Pi 207
▁Revi 207
▁Slav 207
▁administr 207
▁articles 207
▁bull 207
▁conecta 207
▁determinar 207
▁legume 207
▁picior 207
▁truck 207
POL 206
Par 206
cid 206
gaz 206
itat 206
jen 206
jil 206
liberal 206
usan 206
▁Conclu 206
▁Introdu 206
▁Roman 206
▁Summer 206
▁automatically 206
▁charter 206
▁rena 206
▁specifi 206
▁tournament 206
ang 205
dent 205
ela 205
eseen 205
inen 205
rent 205
▁88 205
▁95% 205
▁Airport 205
▁Asian 205
▁Bis 205
▁Dom 205
▁Gordon 205
▁Lamb 205
▁associa 205
▁compose 205
▁făcea 205
▁mainstream 205
▁paragraf 205
▁runde 205
kg 204
stil 204
▁(3) 204
▁Contr 204
▁Dell 204
▁GER 204
▁Pana 204
▁Tito 204
▁breaking 204
▁ciudat 204
▁cui 204
▁curat 204
▁cură 204
▁ilustr 204
▁pes 204
▁soft 204
▁strange 204
%, 203
het 203
its 203
jour 203
premi 203
read 203
sian 203
tui 203
tum 203
water 203
wn 203
▁Batt 203
▁Diya 203
▁Gall 203
▁José 203
▁Key 203
▁Kra 203
▁Papua 203
▁articolele 203
▁asu 203
▁blogger 203
▁doz 203
▁linguis 203
▁meciuri 203
aine 202
aste 202
ching 202
mara 202
rus 202
▁Col 202
▁Everyone 202
▁Lista 202
▁Next 202
▁Veli 202
▁Wis 202
▁graduate 202
▁inspira 202
▁knowing 202
▁ned 202
▁protector 202
▁records 202
▁testing 202
design 201
isen 201
lash 201
nal 201
party 201
scape 201
sensitiv 201
▁Corporation 201
▁Could 201
▁Era 201
▁Min 201
▁Orbán 201
▁Ortodox 201
▁Pittsburgh 201
▁Young 201
▁avio 201
▁dans 201
▁minimal 201
▁poster 201
▁subter 201
▁sun 201
hinder 200
inten 200
mie 200
nas 200
thro 200
tone 200
town 200
▁District 200
▁Mario 200
▁corresponde 200
▁jump 200
▁periferi 200
▁raz 200
▁sacrifica 200
▁verificat 200
-00 199
BA 199
emp 199
function 199
if 199
ith 199
mare 199
mur 199
ware 199
zis 199
▁CIA 199
▁Ris 199
▁Ven 199
▁autocar 199
▁beautiful 199
▁campionat 199
▁fees 199
▁husband 199
▁injuries 199
▁poveste 199
▁reception 199
▁varietat 199
-01 198
HD 198
Mi 198
cava 198
gna 198
have 198
iner 198
oce 198
rial 198
temp 198
tona 198
▁12% 198
▁59 198
▁Anu 198
▁Ferreira 198
▁Hot 198
▁aggressiv 198
▁energii 198
▁len 198
▁quali 198
▁semestr 198
▁sinu 198
▁wonderful 198
EM 197
ford 197
graph 197
legi 197
veri 197
▁Best 197
▁Cons 197
▁Dala 197
▁Mc 197
▁Oslo 197
▁Power 197
▁cult 197
▁cumva 197
▁fixa 197
▁loo 197
▁organic 197
▁pli 197
▁popo 197
▁properties 197
▁ram 197
8,000 196
ENA 196
El 196
fâ 196
plica 196
▁$1 196
▁Ace 196
▁Arch 196
▁Danish 196
▁Helle 196
▁Kenya 196
▁cafe 196
▁festiv 196
▁intru 196
▁licence 196
▁sistemi 196
▁surprising 196
▁temperatur 196
▁update 196
90 195
nings 195
porta 195
pote 195
zione 195
▁Coleg 195
▁Han 195
▁Srbija 195
▁criterio 195
▁default 195
▁fur 195
▁glo 195
▁indispensable 195
▁medic 195
▁preparat 195
▁teaching 195
▁watching 195
Du 194
ain 194
bine 194
etin 194
fir 194
general 194
lie 194
rank 194
uses 194
vedere 194
▁10,000 194
▁290 194
▁Anne 194
▁Fiat 194
▁Herman 194
▁Mah 194
▁Practic 194
▁Tran 194
▁accesa 194
▁attached 194
▁indemniza 194
▁limbaj 194
▁roa 194
▁taxi 194
▁termina 194
20,000 193
50 193
BE 193
That 193
electric 193
grup 193
ilt 193
kal 193
sub 193
tent 193
turk 193
yn 193
▁18% 193
▁20. 193
▁Alexandr 193
▁Bes 193
▁DP 193
▁Osman 193
▁Pred 193
▁Syn 193
▁courses 193
▁fashion 193
▁intoleran 193
▁seemed 193
▁stres 193
30 192
cation 192
indica 192
lings 192
mutat 192
oner 192
pele 192
rst 192
think 192
▁Corp 192
▁Economia 192
▁Has 192
▁Ivana 192
▁Principi 192
▁School 192
▁Tho 192
▁cam 192
▁confidential 192
▁dro 192
▁fug 192
▁rude 192
▁th 192
▁toamna 192
dana 191
enberg 191
gin 191
hari 191
ils 191
ldu 191
mena 191
ruga 191
▁65% 191
▁FA 191
▁Flor 191
▁Ford 191
▁devi 191
▁fu 191
▁interpretar 191
▁obiecte 191
cious 190
grade 190
held 190
mila 190
nist 190
ovič 190
▁Adres 190
▁Audi 190
▁Kraj 190
▁Simpson 190
▁Todo 190
▁dia 190
▁muzici 190
▁recupera 190
▁ros 190
▁sacrifici 190
▁treaba 190
4,000 189
Al 189
Car 189
cher 189
dest 189
fal 189
guri 189
ow 189
rni 189
sto 189
▁Bio 189
▁Bö 189
▁Kru 189
▁Liga 189
▁Punct 189
▁Roberts 189
▁Schwa 189
▁Vic 189
▁agra 189
▁bare 189
▁muzical 189
▁neuro 189
▁pater 189
▁rar 189
▁suicide 189
▁vii 189
Mo 188
aga 188
ager 188
byl 188
ches 188
cor 188
domin 188
explo 188
fri 188
ground 188
kos 188
pers 188
sus 188
where 188
▁Ahmad 188
▁Bull 188
▁Coast 188
▁Popula 188
▁canale 188
▁mld 188
▁occ 188
▁pool 188
▁procesa 188
▁rug 188
▁successo 188
▁vâ 188
det 187
gno 187
mble 187
parent 187
rain 187
rbi 187
rind 187
sar 187
▁Dum 187
▁Ioan 187
▁Kre 187
▁Ministr 187
▁Mur 187
▁Numer 187
▁Victor 187
▁aero 187
▁capita 187
▁confusion 187
▁eram 187
▁friendship 187
▁inevitable 187
▁maxime 187
▁perc 187
▁scrap 187
▁shooting 187
BC 186
beg 186
cant 186
del 186
dina 186
drum 186
enia 186
exe 186
habi 186
prop 186
sist 186
spice 186
▁Adnan 186
▁Aur 186
▁Kali 186
▁adi 186
▁appearance 186
▁missed 186
▁prec 186
▁publicitat 186
▁rup 186
GN 185
Na 185
conf 185
dania 185
ssos 185
▁17. 185
▁England 185
▁Gil 185
▁Zem 185
▁agents 185
▁auditor 185
▁compa 185
▁conforme 185
▁cup 185
▁egg 185
▁elaborar 185
▁grab 185
▁literar 185
▁noci 185
▁permission 185
mania 184
parlament 184
tam 184
vod 184
▁67 184
▁77 184
▁Arte 184
▁Evalua 184
▁Ilir 184
▁Index 184
▁Lebanon 184
▁Sf 184
▁affordable 184
▁compro 184
▁draws 184
▁memory 184
▁photograph 184
▁picioare 184
DG 183
DI 183
RN 183
asse 183
comp 183
lare 183
lend 183
lán 183
pid 183
tech 183
very 183
▁Caribbean 183
▁Ege 183
▁Győr 183
▁Jazz 183
▁Lavrov 183
▁Qatar 183
▁SP 183
▁Sec 183
▁Th 183
▁anticipa 183
▁assistant 183
▁constante 183
▁corri 183
▁featuring 183
▁incorrect 183
▁kick 183
▁moder 183
▁refere 183
▁riche 183
▁trag 183
▁valida 183
ightening 182
orat 182
popular 182
▁Bear 182
▁Ji 182
▁Nei 182
▁Secretaria 182
▁Sergey 182
▁burn 182
▁clothing 182
▁dig 182
▁ec 182
▁rigid 182
▁screen 182
▁stal 182
▁theory 182
▁updated 182
avant 181
bag 181
corpora 181
lana 181
let 181
lice 181
map 181
pit 181
prove 181
rage 181
terior 181
trie 181
▁45% 181
▁Isa 181
▁JA 181
▁Lut 181
▁adoptar 181
▁hotar 181
▁interesante 181
▁nepro 181
▁normale 181
▁petit 181
▁surpriz 181
▁tara 181
▁uniforme 181
CD 180
Claude 180
Kara 180
RF 180
cicli 180
cl 180
imba 180
lje 180
rela 180
vini 180
▁Koha 180
▁Mitchell 180
▁Rud 180
▁coerente 180
▁cuplu 180
▁dates 180
▁devices 180
▁evrei 180
▁fet 180
▁inca 180
▁incompatibil 180
▁scade 180
▁theme 180
Pe 179
gabe 179
invest 179
pher 179
tages 179
à 179
▁Alimenta 179
▁Divers 179
▁Karol 179
▁Rath 179
▁Raz 179
▁Sal 179
▁cruel 179
▁custo 179
▁dedica 179
▁fotografii 179
▁mașină 179
▁repli 179
▁tenis 179
When 178
anta 178
lim 178
lita 178
tek 178
▁1984 178
▁25- 178
▁74 178
▁BDP 178
▁Biserica 178
▁Et 178
▁Soci 178
▁Societat 178
▁bucurie 178
▁cartel 178
▁compare 178
▁compone 178
▁conduit 178
▁fr 178
▁hr 178
▁navigation 178
▁oricum 178
▁pagina 178
▁seconds 178
▁sessions 178
▁superioare 178
▁sursa 178
▁unu 178
duc 177
spur 177
treb 177
tric 177
view 177
vig 177
▁115 177
▁19. 177
▁Book 177
▁Cash 177
▁Kir 177
▁Meri 177
▁Nec 177
▁Nik 177
▁Sam 177
▁Sel 177
▁cho 177
▁kilometre 177
▁necunoscut 177
▁publicată 177
▁silent 177
▁simul 177
▁tank 177
SC 176
diagnos 176
evo 176
scar 176
shield 176
Î 176
▁14% 176
▁IV 176
▁Yan 176
▁bătrân 176
▁etapa 176
▁impotriva 176
▁mil 176
▁pakistan 176
▁passage 176
▁pattern 176
▁prev 176
▁regi 176
▁restaurante 176
affi 175
cem 175
ffe 175
funda 175
iona 175
qa 175
xim 175
▁Colegiul 175
▁Ned 175
▁Nivel 175
▁Svi 175
▁Tat 175
▁accommoda 175
▁anexa 175
▁dark 175
▁dimensions 175
▁hosting 175
▁intenta 175
▁tar 175
▁thoughts 175
75 174
EN 174
IP 174
MR 174
Part 174
ility 174
irani 174
legal 174
load 174
mbi 174
tress 174
▁116 174
▁71 174
▁Cair 174
▁Competition 174
▁Cristian 174
▁Golden 174
▁Kou 174
▁Laden 174
▁Milano 174
▁Telegraph 174
▁Timo 174
▁Ultima 174
▁Would 174
▁agita 174
▁asi 174
▁infer 174
▁kilometri 174
▁loyal 174
▁och 174
▁pande 174
▁prej 174
▁wireless 174
Finan 173
Th 173
clusi 173
cs 173
cycle 173
imen 173
laj 173
she 173
▁23. 173
▁Down 173
▁Forma 173
▁Ham 173
▁Jude 173
▁agre 173
▁diminue 173
▁kur 173
▁loco 173
▁photo 173
▁regres 173
▁trader 173
▁vigor 173
▁zgomot 173
13 172
2/ 172
35 172
With 172
cek 172
depend 172
equivoca 172
hija 172
hy 172
iec 172
itev 172
oz 172
ras 172
tun 172
▁18. 172
▁99% 172
▁Andy 172
▁Chá 172
▁Dat 172
▁ICC 172
▁Kiev 172
▁Rep 172
▁Round 172
▁Visa 172
▁cartea 172
▁cure 172
▁documentation 172
▁hed 172
▁preco 172
-19 171
barca 171
beri 171
block 171
estate 171
eye 171
fter 171
heri 171
nad 171
pire 171
venire 171
▁750 171
▁Colon 171
▁Contra 171
▁Dani 171
▁Explo 171
▁Express 171
▁Impact 171
▁Jerusalem 171
▁Marshall 171
▁Miss 171
▁accommodation 171
▁assumption 171
▁bazi 171
▁carti 171
▁cold 171
▁electro 171
▁gard 171
▁peisaj 171
▁ponder 171
18 170
At 170
Ma 170
ake 170
conscious 170
fall 170
gaard 170
pice 170
sportiv 170
ttle 170
▁Charles 170
▁Construction 170
▁Modern 170
▁Non 170
▁landscape 170
▁noticed 170
▁sti 170
60 169
My 169
antic 169
chang 169
export 169
fest 169
jad 169
ney 169
page 169
ried 169
stig 169
▁10- 169
▁2015, 169
▁Cana 169
▁Cla 169
▁History 169
▁Infra 169
▁Mas 169
▁Sen 169
▁armen 169
▁cioc 169
▁deb 169
▁ere 169
▁impressive 169
▁libra 169
▁plot 169
▁pregnant 169
▁recol 169
▁reprezentativ 169
▁rum 169
Commerce 168
LD 168
Roman 168
fan 168
fluent 168
franc 168
gian 168
how 168
illion 168
lga 168
liu 168
mil 168
mond 168
njak 168
oya 168
sk 168
ulation 168
▁69 168
▁Address 168
▁Nes 168
▁anonim 168
▁coinciden 168
▁frumoase 168
▁guidance 168
▁hotels 168
▁partaja 168
▁pris 168
▁prolong 168
▁restaurant 168
▁sand 168
▁stale 168
▁tare 168
▁ticket 168
▁walk 168
bide 167
continu 167
mand 167
mene 167
ntotdeauna 167
pal 167
sert 167
tiile 167
▁1,2 167
▁Fit 167
▁Kha 167
▁Math 167
▁Reco 167
▁arm 167
▁ben 167
▁classes 167
▁emblem 167
▁exposure 167
▁impedi 167
▁lands 167
▁websites 167
NN 166
guli 166
jel 166
kor 166
lmaz 166
reform 166
vok 166
▁20- 166
▁Chișinău 166
▁Environmental 166
▁Loc 166
▁Maj 166
▁Mood 166
▁Pach 166
▁Servicii 166
▁Shk 166
▁Spec 166
▁Watch 166
▁cat 166
▁celebr 166
▁corporal 166
▁fantastic 166
▁genul 166
▁grupa 166
▁iarnă 166
▁illness 166
▁magnitud 166
▁tied 166
▁transformar 166
▁Š 166
6,000 165
Cor 165
Fi 165
NOS 165
gon 165
kou 165
merci 165
micro 165
pian 165
▁Experi 165
▁Fran 165
▁Gian 165
▁Matthew 165
▁Mio 165
▁Moldovei 165
▁Pf 165
▁Simon 165
▁Wa 165
▁autostrad 165
▁benzin 165
▁choosing 165
▁contacte 165
▁ego 165
▁endur 165
▁lumi 165
▁offensiv 165
▁produsului 165
▁venue 165
▁Îl 165
fia 164
hole 164
izator 164
label 164
limitat 164
lni 164
lân 164
ris 164
sut 164
sy 164
tego 164
uld 164
▁(5) 164
▁Delegat 164
▁Had 164
▁Hillary 164
▁Oo 164
▁Road 164
▁Schu 164
▁Tony 164
▁Unde 164
▁Water 164
▁Wel 164
▁cinema 164
▁colonial 164
▁corp 164
▁excess 164
▁impe 164
▁nesa 164
▁reali 164
▁stata 164
▁ulei 164
america 163
ection 163
enz 163
fre 163
funzi 163
mag 163
minister 163
ners 163
teh 163
tino 163
urg 163
▁68 163
▁76 163
▁98 163
▁Alex 163
▁Beth 163
▁Cross 163
▁Grand 163
▁Life 163
▁Nicholas 163
▁Orhan 163
▁Sco 163
▁barri 163
▁boga 163
▁cenu 163
▁circulation 163
▁funeral 163
▁identificar 163
▁invalid 163
▁tatăl 163
ESH 162
bis 162
dei 162
eer 162
hr 162
izi 162
mak 162
rec 162
test 162
ulat 162
▁21. 162
▁92 162
▁Andreas 162
▁Bol 162
▁Consulta 162
▁Insight 162
▁Mala 162
▁Novosti 162
▁Scr 162
▁Zar 162
▁calitati 162
▁celu 162
▁g 162
▁psi 162
▁remote 162
▁vehement 162
▁verbal 162
/2001 161
200 161
Every 161
Pri 161
endo 161
ham 161
itis 161
nya 161
spir 161
stin 161
▁85% 161
▁Bala 161
▁ES 161
▁Gar 161
▁Joseph 161
▁Kri 161
▁Rece 161
▁Review 161
▁Specific 161
▁Terror 161
▁antrenor 161
▁certification 161
▁eat 161
▁favori 161
▁hostil 161
▁laureat 161
▁modification 161
▁operare 161
▁phrase 161
▁respons 161
▁shopping 161
▁steel 161
▁stigma 161
▁suddenly 161
acquisition 160
kas 160
ken 160
leva 160
qir 160
sies 160
▁82 160
▁Bologna 160
▁Case 160
▁Castro 160
▁Kas 160
▁Lyon 160
▁Marian 160
▁ND 160
▁Rail 160
▁Reporter 160
▁Vid 160
▁cart 160
▁confirmation 160
▁devis 160
▁disponibili 160
▁duplica 160
▁extract 160
▁frustration 160
▁merita 160
▁mutat 160
▁plo 160
▁salvat 160
DEM 159
atis 159
cali 159
dependent 159
enti 159
gel 159
gui 159
rach 159
vai 159
▁2014, 159
▁280 159
▁Columbia 159
▁Custom 159
▁Good 159
▁Obra 159
▁Rapport 159
▁Technic 159
▁Universal 159
▁boys 159
▁cita 159
▁crash 159
▁governo 159
▁hole 159
ICO 158
NS 158
anada 158
bera 158
gged 158
mile 158
oeuvre 158
teen 158
together 158
track 158
▁13% 158
▁Alka 158
▁Bana 158
▁Cameron 158
▁Full 158
▁Hahn 158
▁Pass 158
▁Pierre 158
▁Rou 158
▁Sasa 158
▁Sănătate 158
▁Theodor 158
▁Traffic 158
▁Zone 158
▁adult 158
▁alb 158
▁decret 158
▁discret 158
▁fee 158
▁formular 158
▁hoc 158
▁monta 158
▁moto 158
▁nede 158
▁tyre 158
Aeroport 157
beli 157
class 157
deli 157
mando 157
people 157
wish 157
▁Airways 157
▁Apel 157
▁Fried 157
▁Leg 157
▁Leon 157
▁Manda 157
▁Oral 157
▁Teheran 157
▁Vesel 157
▁architect 157
▁breast 157
▁hind 157
▁page 157
▁resum 157
▁revista 157
▁summa 157
▁tai 157
30,000 156
Euro 156
IF 156
bina 156
brook 156
ident 156
kh 156
lan 156
liti 156
nja 156
nni 156
ombudsman 156
oze 156
phy 156
pp 156
rice 156
speed 156
toj 156
ulla 156
▁12- 156
▁AIDS 156
▁Bow 156
▁CAR 156
▁Cinc 156
▁Dumnezeu 156
▁ID 156
▁Much 156
▁Niko 156
▁dare 156
▁domicili 156
▁mame 156
▁recrea 156
▁techniques 156
PR 155
Za 155
lam 155
uko 155
ural 155
xin 155
▁84 155
▁Cod 155
▁Dai 155
▁Meeting 155
▁Mol 155
▁Ros 155
▁bitter 155
▁consultant 155
▁fali 155
▁files 155
▁homo 155
▁loop 155
▁prevale 155
▁scen 155
▁soci 155
▁ster 155
▁summary 155
▁superficial 155
▁whenever 155
Eu 154
TC 154
bric 154
hni 154
ivi 154
mates 154
pot 154
▁Alm 154
▁Bou 154
▁Brother 154
▁Gal 154
▁Memorandum 154
▁Online 154
▁Pension 154
▁Tara 154
▁agent 154
▁bread 154
▁capta 154
▁conspira 154
▁engineering 154
▁humili 154
▁lire 154
▁marin 154
▁parameter 154
▁ph 154
▁plain 154
▁resol 154
▁surface 154
▁termo 154
DU 153
case 153
cule 153
fog 153
hin 153
iden 153
ides 153
mod 153
ray 153
report 153
ssum 153
stri 153
ternitat 153
unting 153
▁Mann 153
▁Mati 153
▁Rau 153
▁Vin 153
▁blog 153
▁brigad 153
▁certifica 153
▁cubi 153
▁executar 153
▁ofensiv 153
▁portion 153
▁temp 153
▁toward 153
-03 152
-15 152
-3 152
DL 152
Ja 152
ODI 152
bod 152
filia 152
grafi 152
illusion 152
nega 152
sas 152
scen 152
zana 152
î 152
▁550 152
▁96 152
▁Academia 152
▁Brig 152
▁Elimina 152
▁Fatih 152
▁Fin 152
▁IND 152
▁Journalist 152
▁Muz 152
▁Scotland 152
▁Sre 152
▁cul 152
▁dela 152
▁formule 152
▁generic 152
▁lia 152
▁nutri 152
▁ratio 152
▁reci 152
▁revenir 152
▁von 152
▁zvon 152
Alex 151
TK 151
dil 151
factor 151
fat 151
flow 151
gas 151
heat 151
onfidențialitate 151
ranje 151
▁450 151
▁Amsterdam 151
▁Bri 151
▁Cic 151
▁Exchange 151
▁Gates 151
▁Ierusalim 151
▁McG 151
▁Xiao 151
▁Zdrav 151
▁branche 151
▁breath 151
▁celebrat 151
▁conversation 151
▁dance 151
▁patriot 151
▁pocket 151
▁posted 151
▁propagand 151
▁rafin 151
▁revitaliza 151
▁spare 151
▁visibili 151
▁wheel 151
ESA 150
beta 150
dite 150
iem 150
inden 150
jeva 150
ram 150
rol 150
urs 150
zel 150
▁Assistant 150
▁Beng 150
▁Pala 150
▁Provo 150
▁Târgu 150
▁Ulterior 150
▁alien 150
▁dating 150
▁dub 150
▁enumera 150
▁fugit 150
▁lat 150
▁odds 150
▁protein 150
▁rac 150
▁relata 150
▁tablo 150
80 149
FC 149
antaj 149
arch 149
bel 149
doc 149
vind 149
xi 149
▁86 149
▁Ale 149
▁Codul 149
▁Don 149
▁Five 149
▁Nepal 149
▁Reuni 149
▁Section 149
▁Tehran 149
▁Vac 149
▁biomas 149
▁gases 149
▁gestione 149
▁semifinal 149
▁spate 149
▁trem 149
▁ung 149
▁unusual 149
ESS 148
alta 148
awa 148
buran 148
dad 148
dding 148
gle 148
ibi 148
isto 148
ière 148
spire 148
stava 148
sty 148
▁Arts 148
▁Delta 148
▁Jon 148
▁Nor 148
▁Philip 148
▁Whether 148
▁Wolfgang 148
▁bilete 148
▁boom 148
▁clasic 148
▁consta 148
▁delete 148
▁gift 148
▁hang 148
▁male 148
▁minte 148
▁nisi 148
▁popul 148
▁reto 148
▁somehow 148
▁thi 148
Bel 147
How 147
IJ 147
cam 147
erei 147
gate 147
igien 147
plication 147
sun 147
zit 147
▁1992. 147
▁2.5 147
▁21% 147
▁650 147
▁ARM 147
▁Avo 147
▁Calendar 147
▁Gro 147
▁Kreml 147
▁Land 147
▁Ol 147
▁Patri 147
▁Rü 147
▁agresi 147
▁client 147
▁dio 147
▁guests 147
▁inject 147
▁ironi 147
▁jun 147
▁oli 147
▁prins 147
▁projecte 147
▁som 147
▁stamp 147
▁turno 147
-2009 146
02) 146
93 146
CAP 146
VV 146
mez 146
oj 146
ough 146
vili 146
wel 146
▁Como 146
▁Constantin 146
▁FIFA 146
▁Frankfurt 146
▁Pos 146
▁Square 146
▁Wort 146
▁beach 146
▁carton 146
▁crew 146
▁distribuir 146
▁gate 146
▁images 146
▁luck 146
▁nota 146
▁obscur 146
▁patria 146
▁sindical 146
▁spiral 146
▁stories 146
▁subordin 146
-27 145
MT 145
SNS 145
culos 145
lte 145
oil 145
rana 145
traction 145
yl 145
▁2,5 145
▁240 145
▁Back 145
▁Benedict 145
▁Memorial 145
▁Natura 145
▁Park 145
▁Taj 145
▁Une 145
▁accumula 145
▁concentrar 145
▁conten 145
▁employee 145
▁pari 145
▁pig 145
▁stretch 145
▁tensiune 145
▁typical 145
"? 144
-18 144
55 144
Vo 144
apte 144
isla 144
kay 144
nau 144
not 144
succes 144
sz 144
vici 144
yev 144
▁1986 144
▁Bud 144
▁XVI 144
▁apre 144
▁autoturism 144
▁construir 144
▁curta 144
▁distant 144
▁hidden 144
▁instaura 144
▁peli 144
▁ras 144
▁snow 144
▁valut 144
800 143
Bo 143
MA 143
epoca 143
industria 143
jl 143
play 143
rish 143
rush 143
sponsor 143
standard 143
▁12.00 143
▁Bet 143
▁GB 143
▁Interes 143
▁Nokia 143
▁See 143
▁Succes 143
▁aeronave 143
▁cameră 143
▁denomina 143
▁nice 143
▁os 143
▁plenty 143
▁pornografi 143
▁recita 143
▁repro 143
-25 142
ERT 142
bah 142
bene 142
curr 142
drop 142
easca 142
gudu 142
has 142
mut 142
nen 142
ral 142
roka 142
yo 142
zzo 142
▁Farm 142
▁Fjell 142
▁Hal 142
▁Rai 142
▁Tad 142
▁Zona 142
▁atelier 142
▁bilet 142
▁cami 142
▁cazare 142
▁cinc 142
▁college 142
▁immens 142
▁letters 142
▁pois 142
▁rev 142
▁scanner 142
▁tali 142
▁teach 142
▁user 142
300 141
SO 141
Su 141
cens 141
close 141
fly 141
geria 141
iau 141
mica 141
moli 141
nom 141
pata 141
stige 141
volution 141
zio 141
▁Adam 141
▁Ball 141
▁CD 141
▁Call 141
▁Conf 141
▁DNA 141
▁Ig 141
▁Marco 141
▁Mod 141
▁Petro 141
▁Pole 141
▁Safe 141
▁Shar 141
▁Shko 141
▁Silvi 141
▁Tale 141
▁facut 141
▁habit 141
▁habitat 141
▁hao 141
▁meteorologi 141
▁pole 141
▁somewhere 141
▁west 141
eder 140
hend 140
ildi 140
import 140
stemming 140
ula 140
vice 140
▁1,3 140
▁125 140
▁2030 140
▁73 140
▁Agro 140
▁Colombia 140
▁Cru 140
▁Qi 140
▁Saha 140
▁Stalin 140
▁Wales 140
▁distributor 140
▁fl 140
▁hall 140
▁lib 140
▁livrare 140
▁pack 140
▁paint 140
▁print 140
▁quiet 140
▁strat 140
▁tende 140
▁ty 140
▁vino 140
.000 139
Ba 139
aw 139
aza 139
etan 139
fit 139
gii 139
giver 139
heed 139
licita 139
monaster 139
pista 139
uman 139
ville 139
▁Carlos 139
▁Fab 139
▁Geb 139
▁Sau 139
▁Uzbekistan 139
▁[...] 139
▁canto 139
▁clients 139
▁fortuna 139
▁greutate 139
▁inspired 139
▁od 139
▁que 139
▁servit 139
▁sick 139
▁stra 139
▁strip 139
▁surge 139
▁tolerant 139
▁vegetables 139
▁voastre 139
▁xe 139
Chi 138
Europa 138
TT 138
buri 138
fill 138
flor 138
icis 138
moral 138
natura 138
▁1987 138
▁87 138
▁Bed 138
▁Jur 138
▁Rijeka 138
▁Slavi 138
▁Taliban 138
▁aveam 138
▁brain 138
▁cluster 138
▁dy 138
▁hol 138
▁induc 138
▁pagină 138
▁paradigm 138
▁soco 138
▁tune 138
40 137
ISA 137
Inter 137
On 137
aki 137
endum 137
ip 137
kur 137
ndo 137
oris 137
relevant 137
step 137
style 137
sua 137
▁Baj 137
▁Efect 137
▁Ghana 137
▁Hans 137
▁Lud 137
▁Mali 137
▁Port 137
▁Rest 137
▁Short 137
▁aggressi 137
▁buzunar 137
▁cancella 137
▁epi 137
▁genere 137
▁glass 137
▁patrol 137
▁plane 137
▁stăpân 137
▁termin 137
-17 136
/2004 136
ACT 136
erar 136
fish 136
frame 136
ggi 136
iff 136
illi 136
ira 136
mult 136
rak 136
▁Aplica 136
▁Eritrea 136
▁Frontier 136
▁Gabriel 136
▁Person 136
▁Steel 136
▁evolve 136
▁sie 136
▁taught 136
German 135
attache 135
cycli 135
eda 135
ener 135
jar 135
mali 135
q 135
tara 135
tifica 135
▁Cit 135
▁Denk 135
▁Mother 135
▁Ordin 135
▁Ren 135
▁Sy 135
▁Tamil 135
▁barre 135
▁confronta 135
▁controle 135
▁helm 135
▁possess 135
▁possession 135
▁pride 135
-12 134
-16 134
AC 134
BB 134
Dar 134
autor 134
dien 134
hu 134
raj 134
viol 134
▁55% 134
▁Brian 134
▁Bun 134
▁ECO 134
▁Fir 134
▁Forest 134
▁Jag 134
▁Juncker 134
▁Lan 134
▁Leader 134
▁Revolution 134
▁Romano 134
▁Television 134
▁Zlatko 134
▁advertise 134
▁anonym 134
▁ezi 134
▁movies 134
▁nega 134
▁vase 134
70 133
And 133
BS 133
RON 133
bilis 133
dim 133
div 133
hane 133
judi 133
lands 133
liza 133
mane 133
▁Abdul 133
▁Bisericii 133
▁Child 133
▁EX 133
▁Hen 133
▁Hund 133
▁Lake 133
▁MW 133
▁Model 133
▁Nazi 133
▁Român 133
▁Stephen 133
▁UEFA 133
▁ami 133
▁engineer 133
▁fixe 133
▁guardia 133
▁instrumental 133
▁lungime 133
▁procede 133
▁simpati 133
49 132
Kur 132
Prim 132
nak 132
ott 132
roi 132
roll 132
tale 132
tos 132
zes 132
▁17, 132
▁Boj 132
▁Debat 132
▁Humanit 132
▁Industrial 132
▁Kim 132
▁Lea 132
▁Neza 132
▁Nur 132
▁Permanent 132
▁Qui 132
▁Scott 132
▁Solomon 132
▁Tahir 132
▁Vele 132
▁atenta 132
▁ba 132
▁broker 132
▁confirme 132
▁cuba 132
▁distra 132
▁eli 132
▁gay 132
▁gigant 132
▁ilustra 132
▁iluzi 132
▁junta 132
▁juri 132
▁rasism 132
▁rentabil 132
▁ritual 132
▁segrega 132
▁senza 132
▁somebody 132
▁testa 132
Bos 131
Observatori 131
TI 131
bble 131
dded 131
food 131
jos 131
market 131
sses 131
star 131
ulescu 131
vala 131
▁1993. 131
▁Abu 131
▁Ek 131
▁Electronic 131
▁Institution 131
▁Intra 131
▁Opin 131
▁Posi 131
▁Say 131
▁Servi 131
▁Supra 131
▁audiovisual 131
▁clip 131
▁compliment 131
▁conversa 131
▁daughter 131
▁expon 131
▁febr 131
▁lifestyle 131
▁memorie 131
▁negru 131
▁reorganiza 131
▁restaurants 131
▁tropical 131
▁unexpected 131
Ca 130
Ha 130
TB 130
ado 130
bone 130
bî 130
gie 130
lli 130
luci 130
ofobi 130
oje 130
plic 130
prise 130
selt 130
utul 130
vesti 130
▁EG 130
▁Holocaust 130
▁Jari 130
▁Mesaj 130
▁Murat 130
▁VIS 130
▁Václav 130
▁adults 130
▁bara 130
▁carita 130
▁conserve 130
▁continente 130
▁dam 130
▁dissi 130
▁fanat 130
▁intact 130
▁legend 130
▁literature 130
▁pietre 130
▁senator 130
▁sh 130
▁teacher 130
▁teori 130
▁tickets 130
▁uzat 130
▁virtute 130
89 129
EEE 129
Mari 129
Rom 129
Sur 129
itatii 129
kel 129
kind 129
ndar 129
nette 129
pair 129
quest 129
stina 129
utilisation 129
▁Alvar 129
▁Esta 129
▁Hall 129
▁Hay 129
▁Industrie 129
▁Mei 129
▁Operator 129
▁PS 129
▁Sale 129
▁Sti 129
▁campion 129
▁chronic 129
▁colour 129
▁cruci 129
▁dre 129
▁forte 129
▁individ 129
▁infant 129
▁invasi 129
▁islamist 129
▁litoral 129
▁pion 129
▁sky 129
▁sănătos 129
Auto 128
EDO 128
Man 128
action 128
capital 128
chin 128
fam 128
nji 128
pens 128
sdorf 128
servi 128
strict 128
tom 128
usz 128
wand 128
yer 128
▁(4) 128
▁123 128
▁13, 128
▁17- 128
▁1967 128
▁83 128
▁Bog 128
▁Gun 128
▁Medicine 128
▁Ultimate 128
▁copie 128
▁domain 128
▁lecture 128
▁metodologi 128
▁mineral 128
▁pretty 128
▁scholar 128
▁treasure 128
▁îți 128
45 127
abri 127
direct 127
dus 127
embre 127
fix 127
grid 127
lever 127
mba 127
orno 127
protec 127
rett 127
▁22. 127
▁Compar 127
▁Gli 127
▁Gy 127
▁Mihai 127
▁Palestina 127
▁Student 127
▁Viktor 127
▁admir 127
▁album 127
▁biblio 127
▁captiv 127
▁compound 127
▁indul 127
▁polic 127
▁românească 127
") 126
/4 126
ACH 126
business 126
ciem 126
fis 126
ifi 126
lanta 126
nize 126
ola 126
tua 126
▁301 126
▁Cesar 126
▁Emer 126
▁Interven 126
▁Jones 126
▁Palace 126
▁Str 126
▁Transit 126
▁Vene 126
▁anyway 126
▁classic 126
▁como 126
▁corre 126
▁creator 126
▁emotional 126
▁filled 126
▁kidnap 126
▁separar 126
▁solemn 126
▁successive 126
4/ 125
40,000 125
MAS 125
ader 125
bach 125
cast 125
hre 125
hur 125
ibu 125
interes 125
lande 125
lon 125
management 125
minis 125
safe 125
sump 125
▁Accept 125
▁Dick 125
▁Hon 125
▁Kong 125
▁Mate 125
▁Mundu 125
▁Music 125
▁Ster 125
▁Thomas 125
▁Tok 125
▁arri 125
▁brazil 125
▁hrana 125
▁interaction 125
▁magic 125
▁mira 125
▁parametri 125
▁passiv 125
▁televizi 125
NB 124
OM 124
about 124
arm 124
char 124
fighter 124
istica 124
nies 124
ppi 124
presedinte 124
rais 124
ssing 124
tana 124
xico 124
zin 124
▁Aspect 124
▁Bot 124
▁Candidat 124
▁Cecilia 124
▁Cinema 124
▁Joe 124
▁Kiri 124
▁Lady 124
▁Norm 124
▁Novo 124
▁Pali 124
▁TIC 124
▁Training 124
▁Zagrebu 124
▁] 124
▁abusi 124
▁api 124
▁besi 124
▁capul 124
▁contrari 124
▁dealer 124
▁disperat 124
▁enga 124
▁fare 124
▁fete 124
▁filozofi 124
▁hero 124
▁instal 124
▁medicament 124
▁mes 124
▁muta 124
▁povestea 124
▁recept 124
▁tunel 124
26 123
HS 123
High 123
South 123
Tra 123
app 123
dou 123
glo 123
ján 123
stab 123
stress 123
▁Elektro 123
▁Esti 123
▁Gur 123
▁Kun 123
▁Peru 123
▁Pli 123
▁Pra 123
▁Scot 123
▁Suu 123
▁Tor 123
▁Vatican 123
▁bottle 123
▁cargo 123
▁casual 123
▁creativitat 123
▁ecran 123
▁edge 123
▁glas 123
▁indicati 123
▁inherent 123
▁patience 123
▁republica 123
▁spin 123
▁turbulent 123
chy 122
fascist 122
kom 122
lav 122
lova 122
lovi 122
lyst 122
monda 122
phon 122
pitan 122
sense 122
sign 122
taire 122
toni 122
▁Australian 122
▁Bagh 122
▁Division 122
▁Joachim 122
▁Oscar 122
▁Registr 122
▁Sometimes 122
▁Was 122
▁camion 122
▁clan 122
▁cool 122
▁cyn 122
▁finala 122
▁humans 122
▁ili 122
▁medier 122
▁optimiza 122
▁radar 122
▁sting 122
14 121
ED 121
Go 121
SAF 121
activa 121
cim 121
ivo 121
labora 121
mall 121
religio 121
vene 121
vio 121
zionale 121
zz 121
▁186 121
▁230 121
▁Antoni 121
▁Catal 121
▁Chris 121
▁DE 121
▁Edit 121
▁Fortuna 121
▁Imp 121
▁Mihail 121
▁Move 121
▁Right 121
▁Valor 121
▁Via 121
▁accede 121
▁ada 121
▁arts 121
▁breed 121
▁emotion 121
▁feet 121
▁hygien 121
▁layer 121
▁pump 121
▁ring 121
▁simula 121
▁strada 121
▁tor 121
▁triumph 121
FM 120
PG 120
dom 120
hle 120
ilo 120
nca 120
pilot 120
ptu 120
rel 120
tral 120
▁1,6 120
▁3.5 120
▁79 120
▁Bernard 120
▁CEO 120
▁Cari 120
▁Donald 120
▁Guy 120
▁Hus 120
▁Kai 120
▁Louis 120
▁Rank 120
▁Valo 120
▁autonomi 120
▁bed 120
▁divorce 120
▁emp 120
▁favourite 120
▁fito 120
▁legenda 120
▁morale 120
▁motivation 120
▁polit 120
▁prietenilor 120
▁reserved 120
▁residenti 120
▁skille 120
▁solare 120
▁spar 120
▁sărbătoare 120
▁teoretic 120
▁triple 120
-2020 119
16 119
2006 119
DM 119
IE 119
VN 119
ende 119
eus 119
len 119
operativ 119
rici 119
sir 119
▁(2009) 119
▁1.2 119
▁1960 119
▁1996. 119
▁22% 119
▁33% 119
▁Blue 119
▁Celsius 119
▁EURO 119
▁Final 119
▁Gora 119
▁Mara 119
▁Peri 119
▁Rating 119
▁Risk 119
▁Situation 119
▁Strip 119
▁Terme 119
▁amesteca 119
▁busy 119
▁compre 119
▁digit 119
▁dosarul 119
▁gratuite 119
▁magazin 119
▁meter 119
▁quantitat 119
%) 118
-2008 118
2,000 118
CH 118
CM 118
FIN 118
Me 118
bak 118
bei 118
chen 118
elig 118
ena 118
final 118
ib 118
iku 118
language 118
pack 118
pur 118
ssent 118
sum 118
tle 118
▁1998. 118
▁Ai 118
▁Earth 118
▁Label 118
▁MOL 118
▁Mad 118
▁Nice 118
▁OC 118
▁Object 118
▁Old 118
▁Pay 118
▁Responsabili 118
▁Revolu 118
▁Steven 118
▁Uma 118
▁Ved 118
▁anima 118
▁basketbal 118
▁contributo 118
▁copac 118
▁detecta 118
▁herself 118
▁hurt 118
▁inferior 118
▁journal 118
▁k 118
▁ostati 118
▁patri 118
▁strig 118
▁tipi 118
▁tun 118
-14 117
3/ 117
American 117
IO 117
atia 117
cija 117
dog 117
etê 117
itatile 117
link 117
organiz 117
personal 117
rini 117
runner 117
spr 117
training 117
venue 117
zija 117
▁1930 117
▁2014-2020 117
▁21, 117
▁Days 117
▁Fan 117
▁Hu 117
▁Lip 117
▁Meh 117
▁addiction 117
▁atmosfera 117
▁bag 117
▁debitor 117
▁facilitar 117
▁hast 117
▁incredible 117
▁miser 117
▁pictures 117
▁proto 117
▁proverb 117
▁reside 117
▁ridiculous 117
▁tendenci 117
-2012 116
-26 116
MD 116
cca 116
cos 116
ibe 116
lope 116
mata 116
sol 116
stream 116
which 116
wit 116
îm 116
▁136 116
▁23% 116
▁ER 116
▁Facultatea 116
▁Produse 116
▁Sahi 116
▁Sir 116
▁Stock 116
▁Sydney 116
▁Valley 116
▁Victoria 116
▁Zadar 116
▁asiat 116
▁historia 116
▁registre 116
▁revoca 116
▁rob 116
▁siri 116
▁tunnel 116
/2007 115
ETS 115
Israel 115
TEX 115
andro 115
ards 115
bug 115
chip 115
cken 115
cti 115
exp 115
guer 115
material 115
pende 115
runde 115
scribi 115
stand 115
toa 115
trat 115
utilise 115
š 115
▁Cho 115
▁Everything 115
▁García 115
▁Hong 115
▁Mountain 115
▁Procura 115
▁Rog 115
▁Semester 115
▁Spring 115
▁Winter 115
▁doc 115
▁jury 115
▁lod 115
▁mono 115
▁nedo 115
▁passe 115
▁rand 115
▁triumf 115
▁vaste 115
▁vertical 115
▁vesti 115
63 114
RA 114
cki 114
cogni 114
dev 114
frau 114
lander 114
natur 114
sani 114
ubi 114
utin 114
ött 114
▁220 114
▁Administrativ 114
▁Analiz 114
▁Fight 114
▁Holland 114
▁Hotel 114
▁Inova 114
▁Ismail 114
▁Lang 114
▁Manager 114
▁Marc 114
▁Metod 114
▁Neve 114
▁Nicolae 114
▁Nimi 114
▁Tokyo 114
▁Vân 114
▁YouTube 114
▁Zil 114
▁adversari 114
▁alu 114
▁ammu 114
▁arrange 114
▁cali 114
▁cloud 114
▁desert 114
▁disciplin 114
▁edit 114
▁feedback 114
▁focal 114
▁inceput 114
▁ingrediente 114
▁internationale 114
▁piesa 114
▁qualitativ 114
▁tabel 114
▁twenty 114
▁wearing 114
29 113
AE 113
EK 113
GP 113
PN 113
asia 113
fast 113
gat 113
iko 113
posi 113
rose 113
▁3,5 113
▁Arif 113
▁Cold 113
▁Galeria 113
▁Kash 113
▁Tira 113
▁Topic 113
▁atom 113
▁convoca 113
▁foi 113
▁impre 113
▁naiv 113
▁pages 113
▁poezi 113
▁rent 113
▁românesc 113
▁sheet 113
▁spe 113
▁varie 113
-22 112
-23 112
19 112
X 112
amin 112
big 112
kra 112
lou 112
ogen 112
pos 112
udi 112
ň 112
▁27. 112
▁91 112
▁Anders 112
▁Drog 112
▁Imper 112
▁Já 112
▁Kristin 112
▁Kuma 112
▁Mail 112
▁Maxim 112
▁Ou 112
▁Passe 112
▁Princip 112
▁Travel 112
▁Very 112
▁William 112
▁Zer 112
▁dilemma 112
▁dilu 112
▁diplom 112
▁dr 112
▁outlet 112
▁poz 112
▁rasi 112
▁render 112
-2014 111
away 111
chair 111
door 111
haran 111
math 111
medicin 111
ometer 111
palli 111
room 111
roon 111
rust 111
tenant 111
teria 111
▁Alpha 111
▁Bob 111
▁Bursa 111
▁Cath 111
▁Fel 111
▁Groen 111
▁Hil 111
▁Kadar 111
▁Marie 111
▁PR 111
▁Pazar 111
▁Twitter 111
▁Wood 111
▁banner 111
▁canadien 111
▁dyna 111
▁faci 111
▁hate 111
▁inainte 111
▁levy 111
▁lucrare 111
▁mama 111
▁mature 111
▁nebun 111
▁notification 111
▁passion 111
▁percent 111
▁pretend 111
▁stuck 111
▁swa 111
▁undeva 111
▁vacuum 111
-29 110
700 110
8/ 110
Har 110
One 110
Ra 110
cino 110
cket 110
different 110
endi 110
gallery 110
leri 110
may 110
menin 110
mies 110
prie 110
sama 110
vred 110
▁50- 110
▁Cambodia 110
▁Citi 110
▁Demir 110
▁Denis 110
▁Discuss 110
▁Dor 110
▁Fish 110
▁Gheorghe 110
▁Have 110
▁Kol 110
▁Long 110
▁Migra 110
▁Mom 110
▁Ocalan 110
▁Oricum 110
▁Orlando 110
▁Shah 110
▁Singapore 110
▁Sofi 110
▁bela 110
▁climb 110
▁daca 110
▁emisiuni 110
▁ingredients 110
▁pen 110
▁penu 110
▁planes 110
▁spill 110
▁stir 110
21 109
600 109
95 109
Fa 109
Sta 109
air 109
arna 109
avo 109
cios 109
deb 109
iers 109
integr 109
ires 109
itia 109
kup 109
lege 109
linda 109
president 109
rell 109
risk 109
roz 109
▁122 109
▁Bonn 109
▁Come 109
▁Fier 109
▁Foarte 109
▁Gali 109
▁Gel 109
▁Klin 109
▁Scho 109
▁Stol 109
▁acci 109
▁arhiv 109
▁clubs 109
▁flam 109
▁impressed 109
▁load 109
▁obo 109
▁shr 109
▁style 109
▁upp 109
▁workshop 109
-05 108
1,5% 108
24 108
27 108
AIDS 108
Andorra 108
commerce 108
embe 108
high 108
ih 108
implement 108
low 108
mens 108
mol 108
official 108
rava 108
sak 108
script 108
tree 108
vania 108
werp 108
wind 108
zá 108
▁Aby 108
▁Better 108
▁Cabinet 108
▁Contract 108
▁Elena 108
▁Fog 108
▁Hor 108
▁Hussein 108
▁Insurance 108
▁Scientific 108
▁Sibiu 108
▁Stud 108
▁Vasile 108
▁WHO 108
▁actualmente 108
▁authentic 108
▁baby 108
▁cateva 108
▁height 108
▁lag 108
▁nesu 108
▁notifica 108
▁omul 108
▁pin 108
▁prognoz 108
▁simpla 108
▁specialitate 108
▁trick 108
▁vegeta 108
CK 107
GI 107
Lib 107
Stat 107
ano 107
bani 107
gara 107
his 107
mbo 107
specific 107
tag 107
tati 107
xio 107
▁1,4 107
▁175 107
▁Cancel 107
▁Christi 107
▁Empire 107
▁Gran 107
▁Juri 107
▁Nem 107
▁Num 107
▁Patrimoni 107
▁Pil 107
▁Wah 107
▁Which 107
▁catalog 107
▁entra 107
▁frumos 107
▁inspiration 107
▁isn 107
▁liberi 107
▁sor 107
▁za 107
-30 106
28 106
ODA 106
ab 106
agi 106
ecta 106
igra 106
ional 106
isme 106
ony 106
spar 106
spon 106
taj 106
ugi 106
▁1973 106
▁27, 106
▁Amar 106
▁COP 106
▁Cannes 106
▁Colin 106
▁Drum 106
▁Egal 106
▁Janez 106
▁Mater 106
▁Micro 106
▁Osijek 106
▁Rosa 106
▁Sav 106
▁Wars 106
▁Wiki 106
▁durere 106
▁forever 106
▁lock 106
▁penetra 106
▁rotund 106
▁salve 106
▁sfi 106
▁stereotyp 106
▁trail 106
▁voici 106
▁window 106
-2 105
2,5% 105
By 105
Mill 105
Protect 105
aran 105
cari 105
gani 105
icamente 105
rating 105
rce 105
tiny 105
tok 105
▁190 105
▁2018 105
▁Antalya 105
▁Bad 105
▁Band 105
▁Clinic 105
▁Gr 105
▁Ligi 105
▁Mass 105
▁Modifica 105
▁Mou 105
▁Vodafone 105
▁alpin 105
▁ape 105
▁attenti 105
▁bet 105
▁bright 105
▁citesc 105
▁defensiv 105
▁dragi 105
▁fool 105
▁golf 105
▁hinge 105
▁occupa 105
▁pneu 105
▁pol 105
▁rud 105
▁stereotip 105
▁vacation 105
▁worship 105
GRAD 104
WE 104
bella 104
bes 104
cano 104
colare 104
dden 104
gora 104
health 104
ilised 104
lara 104
mist 104
phone 104
present 104
raka 104
resh 104
slalom 104
spi 104
uce 104
▁/ 104
▁19, 104
▁1979 104
▁Anglia 104
▁Beh 104
▁Cluj 104
▁Corpora 104
▁Energia 104
▁Fol 104
▁Gallery 104
▁Hand 104
▁Los 104
▁Lulzim 104
▁Maja 104
▁Oil 104
▁Parc 104
▁Por 104
▁Radu 104
▁Sk 104
▁Tab 104
▁Tava 104
▁Voice 104
▁aglomera 104
▁anuntat 104
▁attorney 104
▁commerce 104
▁dividi 104
▁drama 104
▁iz 104
▁mort 104
▁nowa 104
▁pupil 104
▁qual 104
▁soare 104
▁testat 104
▁trap 104
MV 103
Per 103
ichi 103
lud 103
misele 103
nel 103
plant 103
tano 103
uci 103
unta 103
vari 103
vente 103
ï 103
▁138 103
▁2010) 103
▁Bah 103
▁CF 103
▁Gon 103
▁Jar 103
▁Jim 103
▁Kad 103
▁Kovács 103
▁Medical 103
▁Mid 103
▁Rain 103
▁Ras 103
▁Sign 103
▁Sne 103
▁Thi 103
▁arata 103
▁calculator 103
▁dividend 103
▁incepand 103
▁qui 103
▁rif 103
▁strand 103
▁stupid 103
-13 102
23 102
ADE 102
Mul 102
Pu 102
SB 102
bbi 102
gled 102
hit 102
lap 102
ljiva 102
other 102
pes 102
phil 102
shore 102
still 102
week 102
weight 102
ć 102
▁109 102
▁147 102
▁Austri 102
▁Bowl 102
▁Buy 102
▁Digital 102
▁Energe 102
▁Evangel 102
▁Fle 102
▁Main 102
▁Nam 102
▁Roth 102
▁SET 102
▁SO 102
▁Week 102
▁beauty 102
▁boas 102
▁coro 102
▁dispersi 102
▁experimental 102
▁foto 102
▁golden 102
▁joy 102
▁manipul 102
▁mot 102
▁pena 102
▁platforma 102
▁refund 102
▁residu 102
▁ruta 102
▁shoot 102
▁stadion 102
▁usage 102
-10 101
-24 101
Energ 101
aca 101
barra 101
educa 101
inski 101
kaya 101
logic 101
monia 101
nium 101
nski 101
osa 101
rata 101
shell 101
wers 101
ál 101
▁93 101
▁Als 101
▁Baku 101
▁Bart 101
▁Comercial 101
▁Erik 101
▁Ian 101
▁Kam 101
▁Pavel 101
▁Profesor 101
▁Saddam 101
▁Survey 101
▁TI 101
▁Vul 101
▁amplifica 101
▁cabo 101
▁cald 101
▁certi 101
▁consumat 101
▁creier 101
▁designer 101
▁gânduri 101
▁hacker 101
▁knock 101
▁literatur 101
▁painting 101
▁routine 101
▁sample 101
400 100
ARE 100
Pal 100
SAR 100
actual 100
approche 100
eros 100
fili 100
happy 100
igen 100
itan 100
kar 100
liste 100
puter 100
sider 100
title 100
volu 100
▁16- 100
▁19% 100
▁1950 100
▁850 100
▁Artist 100
▁BEL 100
▁Comme 100
▁Emir 100
▁Exact 100
▁Intelligence 100
▁Jak 100
▁Makedon 100
▁Napoli 100
▁PES 100
▁Patient 100
▁Quart 100
▁Samir 100
▁Sho 100
▁Stre 100
▁Turn 100
▁anymore 100
▁bl 100
▁favorit 100
▁perpetua 100
▁pornire 100
▁precio 100
▁ramp 100
▁reti 100
▁reviews 100
▁tan 100
▁variabil 100
▁vir 100
-21 99
9/ 99
91 99
EX 99
From 99
Now 99
Reg 99
dge 99
dh 99
ernes 99
fera 99
manda 99
motion 99
ometr 99
oza 99
pati 99
prob 99
profil 99
quis 99
rut 99
super 99
▁1,8 99
▁105 99
▁Academi 99
▁Buna 99
▁Colle 99
▁Deo 99
▁Later 99
▁Lead 99
▁Norwegian 99
▁arogan 99
▁bacteri 99
▁biserică 99
▁ble 99
▁circles 99
▁delimita 99
▁mese 99
▁moments 99
▁pala 99
▁pano 99
▁perturba 99
▁publicitar 99
▁reclame 99
▁recours 99
▁searching 99
▁sfarsitul 99
41 98
CCC 98
IA 98
TEC 98
bir 98
book 98
eke 98
fte 98
hl 98
iski 98
mpe 98
naire 98
rick 98
sam 98
solv 98
stolen 98
teja 98
valente 98
vant 98
▁30- 98
▁99 98
▁BC 98
▁Bag 98
▁EM 98
▁FED 98
▁Fal 98
▁GSM 98
▁Kla 98
▁Nothing 98
▁OMG 98
▁Record 98
▁Riz 98
▁Rod 98
▁Sokol 98
▁Team 98
▁Voici 98
▁Wei 98
▁ampli 98
▁banker 98
▁blank 98
▁cada 98
▁experimenta 98
▁fasci 98
▁glu 98
▁melodi 98
▁politie 98
▁recording 98
▁swap 98
▁tira 98
▁trou 98
MAP 97
Problem 97
St 97
dating 97
divers 97
elio 97
hol 97
imagina 97
juk 97
lle 97
pari 97
pavil 97
that 97
tioner 97
unk 97
ß 97
▁11- 97
▁Animal 97
▁Bene 97
▁Bruno 97
▁Channel 97
▁Davis 97
▁Eri 97
▁Folosi 97
▁Gestion 97
▁Important 97
▁Olympia 97
▁Organizator 97
▁Prefer 97
▁Sun 97
▁arsenal 97
▁autohton 97
▁graves 97
▁honey 97
▁hrane 97
▁junior 97
▁negre 97
▁obsolet 97
▁surgery 97
▁titular 97
▁unica 97
▁verte 97
99 96
Ad 96
ETA 96
EZ 96
ITS 96
News 96
bila 96
gni 96
jes 96
kaj 96
lector 96
nge 96
pisco 96
short 96
sini 96
symmetri 96
tib 96
wr 96
▁1956 96
▁ATP 96
▁Dacia 96
▁Desert 96
▁Elev 96
▁Fest 96
▁Grigor 96
▁Issue 96
▁Jas 96
▁Large 96
▁Lind 96
▁Marka 96
▁Monument 96
▁Religi 96
▁Rene 96
▁Ring 96
▁Somali 96
▁Stri 96
▁Tud 96
▁Vale 96
▁XX 96
▁bere 96
▁cumpli 96
▁dedicati 96
▁demon 96
▁dollars 96
▁girl 96
▁isi 96
▁legatura 96
▁musical 96
▁normativ 96
▁repeti 96
▁sounds 96
▁stor 96
▁watched 96
DR 95
EV 95
abilir 95
bral 95
figur 95
gh 95
inclusiv 95
ksi 95
pha 95
rão 95
sari 95
though 95
tini 95
tir 95
unun 95
▁1,7 95
▁114 95
▁15.00 95
▁360 95
▁Adem 95
▁Banc 95
▁Faz 95
▁Fernandes 95
▁Firma 95
▁LGBT 95
▁Lord 95
▁Lyn 95
▁Sami 95
▁Silva 95
▁Teresa 95
▁Test 95
▁Trust 95
▁Urban 95
▁Vario 95
▁Vilnius 95
▁Wild 95
▁administrat 95
▁appar 95
▁cen 95
▁costat 95
▁diri 95
▁frig 95
▁frum 95
▁imperi 95
▁mood 95
▁nutrition 95
▁plumb 95
▁suflet 95
▁tr 95
-06 94
FO 94
Lo 94
Lu 94
OMS 94
People 94
books 94
cane 94
eo 94
eten 94
good 94
innova 94
issa 94
kim 94
nec 94
och 94
ovich 94
plot 94
rid 94
rü 94
tere 94
tule 94
▁0.5 94
▁1988 94
▁24. 94
▁Bridge 94
▁Brod 94
▁Char 94
▁Dalma 94
▁Demonstra 94
▁Govern 94
▁Miranda 94
▁Scu 94
▁Sh 94
▁adaugat 94
▁banche 94
▁checking 94
▁ești 94
▁gram 94
▁mint 94
▁mir 94
▁pau 94
▁quest 94
▁sezoni 94
▁vizion 94
32 93
ATH 93
IFI 93
IV 93
Ro 93
alkan 93
cka 93
content 93
dhe 93
iana 93
inka 93
jung 93
pad 93
rist 93
sori 93
teni 93
tier 93
▁Ara 93
▁CB 93
▁Hitler 93
▁Hospital 93
▁Lov 93
▁Migration 93
▁Mila 93
▁Orchestra 93
▁Organization 93
▁PNL 93
▁Prije 93
▁Return 93
▁Sierra 93
▁Spi 93
▁Watson 93
▁beg 93
▁cry 93
▁directora 93
▁incredibly 93
▁instructions 93
▁interlocutor 93
▁lig 93
▁machines 93
▁minus 93
▁neat 93
▁noto 93
▁prop 93
▁proximi 93
▁sofistic 93
▁splendid 93
▁sul 93
▁timid 93
/2 92
98 92
dimensional 92
gol 92
green 92
hman 92
nti 92
ply 92
rî 92
size 92
svet 92
velli 92
vik 92
yle 92
zem 92
▁(2010) 92
▁103 92
▁7- 92
▁Ach 92
▁Andrew 92
▁Bangladesh 92
▁Bratislava 92
▁Cornel 92
▁Country 92
▁Diana 92
▁Indica 92
▁Johnson 92
▁Kato 92
▁Luis 92
▁Maybe 92
▁Michal 92
▁Modul 92
▁Munich 92
▁Name 92
▁Rec 92
▁Srpske 92
▁Zealand 92
▁adolesce 92
▁ascend 92
▁cable 92
▁chip 92
▁elevilor 92
▁grădini 92
▁lots 92
▁mega 92
▁mina 92
▁mortgage 92
▁pivo 92
▁plag 92
▁propi 92
▁refu 92
▁spell 92
▁trio 92
▁vag 92
▁workshops 92
Let 91
Qu 91
Ta 91
ades 91
ago 91
cchi 91
ents 91
ette 91
ium 91
matricula 91
ort 91
politi 91
rente 91
riz 91
this 91
tsa 91
ök 91
ński 91
▁137 91
▁143 91
▁4.5 91
▁Andrei 91
▁Building 91
▁Dali 91
▁Dre 91
▁Enterprise 91
▁File 91
▁Hü 91
▁Iron 91
▁Renault 91
▁Sfânt 91
▁Tel 91
▁Wi 91
▁actress 91
▁campi 91
▁comenzi 91
▁culoare 91
▁diesel 91
▁dollar 91
▁grija 91
▁maro 91
▁mur 91
▁olive 91
▁pies 91
▁profes 91
▁rooms 91
▁stadium 91
▁vid 91
▁wisdom 91
▁° 91
Ho 90
MW 90
ND 90
dato 90
eza 90
feed 90
gida 90
gold 90
ince 90
inci 90
meti 90
mid 90
nese 90
ovine 90
pasti 90
pis 90
rna 90
rund 90
stit 90
vu 90
▁22, 90
▁440 90
▁Aziz 90
▁End 90
▁Horn 90
▁Konstantin 90
▁Kosta 90
▁Learning 90
▁Oto 90
▁Pagina 90
▁Price 90
▁Sina 90
▁Vir 90
▁Wolf 90
▁Yo 90
▁Zbog 90
▁abrupt 90
▁acid 90
▁aide 90
▁alig 90
▁bil 90
▁compila 90
▁desfasura 90
▁disorder 90
▁email 90
▁escort 90
▁generos 90
▁horri 90
▁pha 90
▁pier 90
▁prive 90
▁recompensa 90
▁reda 90
▁soul 90
▁stran 90
▁tid 90
▁versi 90
▁viti 90
▁wear 90
-11 89
HA 89
ient 89
lez 89
mili 89
niz 89
pate 89
ples 89
problem 89
propi 89
thal 89
tsen 89
vec 89
xe 89
ălă 89
▁1.6 89
▁28- 89
▁4,5 89
▁California 89
▁Constanța 89
▁Cra 89
▁Diva 89
▁Doctor 89
▁Fail 89
▁Ir 89
▁Karl 89
▁Low 89
▁Muze 89
▁Rin 89
▁Start 89
▁Stress 89
▁counsel 89
▁duminica 89
▁emancip 89
▁exotic 89
▁expo 89
▁fotografie 89
▁invade 89
▁multitudine 89
▁muzica 89
▁noon 89
▁privati 89
▁truc 89
/7 88
100 88
6-4 88
60,000 88
OP 88
Si 88
UC 88
fas 88
forum 88
fti 88
gio 88
itati 88
kok 88
lema 88
lija 88
metru 88
ovia 88
razil 88
rzy 88
static 88
thri 88
voje 88
▁1,1 88
▁1985 88
▁Angli 88
▁BB 88
▁Baha 88
▁Clark 88
▁Crea 88
▁Distribu 88
▁Fotbal 88
▁Hala 88
▁Hos 88
▁Jav 88
▁Kola 88
▁Kras 88
▁Kust 88
▁Looking 88
▁Tesla 88
▁Transilvania 88
▁Vlast 88
▁Wo 88
▁alian 88
▁diagnose 88
▁flutur 88
▁folk 88
▁inteligen 88
▁juvenil 88
▁marche 88
▁minu 88
▁planta 88
▁părinte 88
▁scri 88
▁semester 88
▁sufletul 88
▁vibrant 88
bura 87
dura 87
eli 87
foar 87
geni 87
lici 87
lind 87
meter 87
nade 87
nutri 87
orienta 87
plat 87
sites 87
sound 87
té 87
vas 87
▁24- 87
▁Asa 87
▁Bari 87
▁Brad 87
▁Brez 87
▁CN 87
▁Foc 87
▁Fr 87
▁Gregori 87
▁Lega 87
▁Literatur 87
▁MD 87
▁Nic 87
▁Plas 87
▁Ska 87
▁Stephan 87
▁VI 87
▁bia 87
▁biserica 87
▁burg 87
▁cave 87
▁examen 87
▁fake 87
▁hor 87
▁hub 87
▁literally 87
▁logo 87
▁marti 87
▁pardon 87
▁precipit 87
▁presedintele 87
▁rubrica 87
▁scaun 87
▁snap 87
▁twin 87
"; 86
31 86
AM 86
AV 86
MF 86
RIA 86
SI 86
agh 86
bler 86
cil 86
culare 86
give 86
horizon 86
ill 86
kala 86
noc 86
racia 86
reck 86
rod 86
ropol 86
sensi 86
top 86
tta 86
vati 86
wu 86
čnik 86
▁0.0 86
▁28, 86
▁ASEAN 86
▁Antar 86
▁Concept 86
▁GPS 86
▁Gav 86
▁Harri 86
▁Jozef 86
▁Mars 86
▁Neces 86
▁Site 86
▁Teodor 86
▁anxiety 86
▁clandestin 86
▁comfortable 86
▁contemporan 86
▁device 86
▁domin 86
▁elu 86
▁horror 86
▁imagin 86
▁landing 86
▁laptop 86
▁magnific 86
▁masse 86
▁pionier 86
▁premium 86
▁recipe 86
▁sister 86
▁specie 86
▁universitat 86
▁xen 86
Dom 85
ERN 85
OD 85
alia 85
ato 85
av 85
bey 85
bot 85
centi 85
cm 85
dder 85
enie 85
garde 85
gau 85
ille 85
llis 85
lustra 85
now 85
ović 85
pite 85
prac 85
pula 85
ribu 85
sburg 85
tou 85
vre 85
▁1.3 85
▁14- 85
▁1905 85
▁Aleks 85
▁Bond 85
▁Bron 85
▁Cancer 85
▁Detroit 85
▁Develop 85
▁Executiv 85
▁Istor 85
▁Mauro 85
▁PD 85
▁Patriarh 85
▁Reci 85
▁Riga 85
▁Saint 85
▁Suma 85
▁Take 85
▁affirme 85
▁blu 85
▁bone 85
▁comfort 85
▁craft 85
▁defa 85
▁forbi 85
▁franc 85
▁frumoasă 85
▁ident 85
▁ji 85
▁kilogram 85
▁laugh 85
▁mentor 85
▁notable 85
▁ralli 85
▁sed 85
▁tw 85
▁wis 85
▁zoo 85
CON 84
ECA 84
Net 84
Qa 84
Trans 84
banda 84
bourg 84
corp 84
evi 84
ief 84
jec 84
materiale 84
rend 84
rska 84
rt 84
seminar 84
vere 84
ye 84
zol 84
▁1) 84
▁112 84
▁1975 84
▁Att 84
▁Damasc 84
▁Deal 84
▁Deniz 84
▁Domini 84
▁Ed 84
▁Elect 84
▁Element 84
▁Emirat 84
▁Kelly 84
▁Kuwa 84
▁Lange 84
▁Lucas 84
▁Marine 84
▁Ministeri 84
▁Presidenti 84
▁Ross 84
▁Savi 84
▁Scan 84
▁Senior 84
▁Sociale 84
▁Tourist 84
▁Wat 84
▁apo 84
▁arbor 84
▁confere 84
▁copy 84
▁description 84
▁excede 84
▁factura 84
▁fara 84
▁farmaci 84
▁fed 84
▁fia 84
▁hin 84
▁inspirat 84
▁instant 84
▁magistrat 84
▁magna 84
▁primordial 84
▁provincial 84
▁reviste 84
▁roof 84
▁sacri 84
▁songs 84
▁termic 84
▁topp 84
▁voa 84
500,000 83
85 83
AG 83
TTE 83
bha 83
chov 83
deira 83
dow 83
ega 83
hani 83
isc 83
jum 83
mbin 83
mia 83
pato 83
ssu 83
teli 83
ullah 83
wei 83
zier 83
▁1982 83
▁2) 83
▁Albi 83
▁Crow 83
▁Ec 83
▁Exc 83
▁GM 83
▁Glav 83
▁Hag 83
▁Informati 83
▁Mike 83
▁Mobile 83
▁Musul 83
▁Pal 83
▁Pru 83
▁Samuel 83
▁Tomorrow 83
▁Too 83
▁abunda 83
▁accompli 83
▁auditori 83
▁bacteria 83
▁carica 83
▁fai 83
▁ies 83
▁illustration 83
▁insight 83
▁interioare 83
▁nur 83
▁pervers 83
▁pianist 83
▁picked 83
▁sfaturi 83
▁sil 83
▁socialism 83
▁strid 83
▁wondering 83
22 82
Fo 82
Mer 82
Pa 82
econom 82
iser 82
laya 82
nh 82
ografie 82
oten 82
promo 82
rep 82
rink 82
smo 82
spo 82
sque 82
zni 82
▁18- 82
▁1997. 82
▁Actor 82
▁Alp 82
▁Bauer 82
▁DOS 82
▁Guide 82
▁Hir 82
▁Individual 82
▁Mill 82
▁Omar 82
▁Private 82
▁Rada 82
▁Schal 82
▁Sánchez 82
▁Vam 82
▁Vatan 82
▁Zub 82
▁ancora 82
▁babi 82
▁bate 82
▁betra 82
▁carburant 82
▁custodi 82
▁dom 82
▁mall 82
▁multipli 82
▁nin 82
▁presse 82
▁rem 82
▁salt 82
▁signat 82
▁sy 82
▁• 82
/2005 81
3,5% 81
61 81
Mus 81
OTE 81
PO 81
VM 81
cions 81
fiinta 81
gane 81
hir 81
hra 81
ighed 81
ino 81
instruction 81
lemek 81
mmig 81
mming 81
organisation 81
plete 81
prov 81
publica 81
rik 81
tik 81
tov 81
trica 81
vite 81
▁135 81
▁176 81
▁2,4 81
▁25. 81
▁255 81
▁31, 81
▁Age 81
▁Baza 81
▁Cade 81
▁Chemi 81
▁County 81
▁HR 81
▁Hr 81
▁Lia 81
▁Miko 81
▁Pier 81
▁Profit 81
▁Rei 81
▁Rid 81
▁calme 81
▁catering 81
▁cititori 81
▁dise 81
▁dispose 81
▁fauna 81
▁king 81
▁ling 81
▁miere 81
▁plau 81
▁pour 81
▁replica 81
▁spion 81
▁televizor 81
▁temper 81
▁trapp 81
▁tree 81
▁versa 81
-2015 80
-28 80
70,000 80
Islam 80
bac 80
falls 80
hist 80
illon 80
jevo 80
logo 80
note 80
olimp 80
rah 80
rina 80
sunt 80
thana 80
tio 80
ugur 80
wat 80
zh 80
ák 80
▁121 80
▁146 80
▁1994. 80
▁AG 80
▁Anche 80
▁Baz 80
▁Bey 80
▁Big 80
▁Bloom 80
▁Broadcast 80
▁Center 80
▁Ch 80
▁Dem 80
▁Evans 80
▁Franz 80
▁Ia 80
▁Kirk 80
▁Licht 80
▁MEDIA 80
▁Merk 80
▁Mona 80
▁Morgan 80
▁Niger 80
▁Orden 80
▁Pale 80
▁Plant 80
▁Pământ 80
▁Regel 80
▁Rwanda 80
▁Saa 80
▁Surel 80
▁Tour 80
▁Vr 80
▁calma 80
▁cement 80
▁cheese 80
▁classifica 80
▁commence 80
▁copilul 80
▁dolar 80
▁emigrant 80
▁fidel 80
▁fort 80
▁matematic 80
▁meal 80
▁meri 80
▁photos 80
▁poarta 80
▁protagonist 80
▁serial 80
▁shi 80
▁stric 80
▁suffi 80
/3 79
Au 79
Dis 79
En 79
ICA 79
IG 79
SR 79
UD 79
atus 79
dha 79
ella 79
gil 79
nar 79
pred 79
psy 79
slova 79
utili 79
visible 79
von 79
état 79
▁1.4 79
▁102 79
▁Ani 79
▁Bash 79
▁Benefici 79
▁Despre 79
▁Did 79
▁Familia 79
▁Fox 79
▁Grad 79
▁Indonesia 79
▁Invest 79
▁Marmara 79
▁Mobi 79
▁Myanmar 79
▁boss 79
▁brin 79
▁butter 79
▁circuit 79
▁demi 79
▁eating 79
▁fis 79
▁hy 79
▁județ 79
▁married 79
▁module 79
▁optimal 79
▁originale 79
▁redo 79
▁slot 79
▁swim 79
▁teatr 79
▁temat 79
▁uscat 79
▁variable 79
▁vocal 79
33 78
Commun 78
Mini 78
NI 78
baz 78
bund 78
chant 78
colli 78
cou 78
fried 78
gaj 78
hammer 78
iert 78
jak 78
liner 78
nne 78
pper 78
quat 78
rti 78
uter 78
working 78
zik 78
▁$2 78
▁1945 78
▁1978 78
▁2025 78
▁270 78
▁6- 78
▁89 78
▁98% 78
▁Combi 78
▁Concili 78
▁Dam 78
▁Epi 78
▁Eve 78
▁Jeg 78
▁Jolie 78
▁Kap 78
▁Kel 78
▁Magistr 78
▁Runde 78
▁Salih 78
▁Standart 78
▁Strauss 78
▁Tere 78
▁Vigo 78
▁balo 78
▁confronti 78
▁domino 78
▁imper 78
▁infiltra 78
▁kWh 78
▁leto 78
▁levi 78
▁litre 78
▁materiali 78
▁navig 78
▁personaje 78
▁rector 78
▁suite 78
▁theo 78
▁traumat 78
▁verge 78
▁windows 78
300,000 77
Invest 77
MU 77
cand 77
chol 77
conta 77
eventuale 77
inu 77
ipa 77
ky 77
punct 77
quo 77
ref 77
sad 77
ská 77
tax 77
technic 77
tev 77
tile 77
touch 77
turing 77
uje 77
word 77
▁1.7 77
▁23, 77
▁APC 77
▁Arena 77
▁Berat 77
▁Bloc 77
▁Concurs 77
▁Deutsch 77
▁Exam 77
▁Hollywood 77
▁Id 77
▁Mine 77
▁Misi 77
▁Prie 77
▁Siemens 77
▁Spune 77
▁Teo 77
▁Wie 77
▁abstract 77
▁chicken 77
▁deporte 77
▁embo 77
▁finalizar 77
▁insert 77
▁lunch 77
▁mecanic 77
▁metro 77
▁operat 77
▁orto 77
▁prepo 77
▁realmente 77
▁ska 77
▁triste 77
/20 76
1,000 76
Burmese 76
CN 76
Cha 76
International 76
Kat 76
TAC 76
TRE 76
amine 76
duit 76
elve 76
ibo 76
igan 76
inform 76
izing 76
jaga 76
laboratori 76
laki 76
lera 76
mendi 76
onore 76
profe 76
ruth 76
setting 76
shon 76
skou 76
tila 76
tuar 76
▁106 76
▁126 76
▁1963 76
▁2009) 76
▁260 76
▁4- 76
▁94 76
▁Argument 76
▁Bara 76
▁Bhatt 76
▁Camar 76
▁Clan 76
▁Fla 76
▁Football 76
▁Halil 76
▁Kohl 76
▁Meg 76
▁PM 76
▁Philippines 76
▁Roland 76
▁Royal 76
▁Seoul 76
▁Show 76
▁anar 76
▁coffee 76
▁discuti 76
▁economica 76
▁emisiune 76
▁grafic 76
▁gravid 76
▁infinit 76
▁jocul 76
▁labor 76
▁mask 76
▁numar 76
▁observar 76
▁pair 76
▁prayer 76
▁punte 76
▁rezervate 76
▁slip 76
▁slots 76
▁teenager 76
▁traduc 76
▁transcend 76
▁unlimited 76
▁vain 76
▁vindeca 76
-08 75
-2007 75
AB 75
CET 75
GB 75
IS 75
Tbilisi 75
anja 75
grat 75
histori 75
ix 75
izia 75
kie 75
kse 75
lite 75
mme 75
osh 75
phor 75
pte 75
sip 75
spa 75
spel 75
tol 75
tuna 75
▁152 75
▁2.4 75
▁Alternative 75
▁Arm 75
▁Bai 75
▁Cyr 75
▁Fen 75
▁Hamza 75
▁Ice 75
▁Musta 75
▁Naz 75
▁PH 75
▁Pag 75
▁RA 75
▁Tempo 75
▁Zeeland 75
▁avere 75
▁baga 75
▁bags 75
▁birthday 75
▁blend 75
▁discount 75
▁dragoste 75
▁guest 75
▁gymnast 75
▁instituti 75
▁loved 75
▁manifestar 75
▁presidi 75
▁prestigi 75
▁raf 75
▁sân 75
39 74
BIT 74
GER 74
Italia 74
LP 74
alle 74
analiz 74
brid 74
bunden 74
cana 74
dot 74
gran 74
insu 74
lag 74
lick 74
ltu 74
lund 74
láš 74
rija 74
rock 74
rä 74
sionist 74
tiri 74
âl 74
▁108 74
▁Abbas 74
▁Af 74
▁Aj 74
▁Bagi 74
▁Bourg 74
▁Considera 74
▁Elizabeth 74
▁FBI 74
▁FE 74
▁Grupa 74
▁Guill 74
▁IBM 74
▁Integr 74
▁Previous 74
▁Resource 74
▁Rie 74
▁Rose 74
▁Study 74
▁Technolog 74
▁Thai 74
▁Vra 74
▁cadouri 74
▁crestere 74
▁decat 74
▁episcop 74
▁fotografi 74
▁frontal 74
▁gimnast 74
▁imperio 74
▁infirmi 74
▁ly 74
▁miracle 74
▁multiplica 74
▁necessitat 74
▁nomine 74
▁obses 74
▁penitenciar 74
▁prad 74
▁regal 74
▁revela 74
▁sep 74
▁sinteti 74
▁utila 74
▁variant 74
▁versus 74
▁à 74
-2005 73
/5 73
Cel 73
Is 73
Ju 73
NT 73
acce 73
bles 73
cala 73
chor 73
dici 73
informa 73
kop 73
lep 73
llo 73
pida 73
renta 73
sourcing 73
sud 73
tig 73
type 73
ups 73
viet 73
▁13- 73
▁26. 73
▁97 73
▁Alba 73
▁BI 73
▁Blank 73
▁Circ 73
▁Cultura 73
▁Fiscal 73
▁Guard 73
▁Herceg 73
▁Investor 73
▁Kabul 73
▁Mary 73
▁Netanyahu 73
▁Nie 73
▁Respond 73
▁Rezerv 73
▁Rock 73
▁Santa 73
▁Senti 73
▁Sr 73
▁Valencia 73
▁Vara 73
▁XIX 73
▁aber 73
▁alerg 73
▁ant 73
▁atlet 73
▁brân 73
▁castigat 73
▁concede 73
▁distract 73
▁dot 73
▁elan 73
▁episode 73
▁improviz 73
▁indian 73
▁mel 73
▁mizer 73
▁personalitat 73
▁planeta 73
▁politi 73
▁restante 73
▁sna 73
▁studio 73
▁suppose 73
▁tabu 73
▁vers 73
36 72
ER 72
Respons 72
Ri 72
cell 72
had 72
hine 72
lion 72
lom 72
md 72
missi 72
nant 72
nav 72
rri 72
ró 72
▁154 72
▁192 72
▁1981 72
▁215 72
▁Analiza 72
▁Beyond 72
▁Bij 72
▁Ferenc 72
▁Gala 72
▁Jackson 72
▁Jah 72
▁Kho 72
▁Ltd 72
▁MON 72
▁Miguel 72
▁Milliy 72
▁Mira 72
▁Montreal 72
▁Nicaragua 72
▁Patrick 72
▁Tam 72
▁Total 72
▁beli 72
▁confortabil 72
▁decorat 72
▁disso 72
▁dry 72
▁exige 72
▁incepe 72
▁instructor 72
▁lira 72
▁maniera 72
▁medicin 72
▁networking 72
▁opportun 72
▁prono 72
▁rabi 72
▁relatii 72
▁ride 72
▁rupe 72
▁simptome 72
▁skill 72
▁subscr 72
▁terme 72
▁utopi 72
▁wir 72
2004 71
CF 71
CV 71
EUS 71
agri 71
ann 71
cles 71
dio 71
fie 71
izen 71
lach 71
lood 71
rimo 71
save 71
stick 71
supra 71
times 71
vous 71
world 71
▁1948 71
▁330 71
▁Borg 71
▁Compl 71
▁Complex 71
▁DJ 71
▁Disease 71
▁Dispo 71
▁Edward 71
▁Fas 71
▁Fine 71
▁Flexi 71
▁Hugo 71
▁Karel 71
▁Lagu 71
▁Library 71
▁Nav 71
▁Nin 71
▁Persi 71
▁Prepara 71
▁Property 71
▁Q 71
▁Quality 71
▁Semi 71
▁São 71
▁Televizi 71
▁Weil 71
▁Williams 71
▁Zá 71
▁cara 71
▁corps 71
▁curriculum 71
▁customer 71
▁lauda 71
▁metropol 71
▁mouth 71
▁pleasant 71
▁recep 71
▁trad 71
▁yard 71
2° 70
46 70
62 70
BBC 70
CA 70
Ch 70
LEG 70
anga 70
czyn 70
eller 70
gression 70
hum 70
lain 70
lima 70
magnet 70
mari 70
mouth 70
ntino 70
ografi 70
piece 70
polit 70
sberg 70
support 70
too 70
vne 70
you 70
zur 70
zve 70
▁153 70
▁1968 70
▁1971 70
▁2- 70
▁2000- 70
▁29, 70
▁Civic 70
▁Curs 70
▁ETA 70
▁Facilita 70
▁Fashion 70
▁Gerhard 70
▁Ghe 70
▁HS 70
▁Honey 70
▁Jobb 70
▁Kle 70
▁Mene 70
▁Méndez 70
▁Navigation 70
▁Ofer 70
▁Petri 70
▁Phil 70
▁Politika 70
▁Rang 70
▁Rodriguez 70
▁Rosen 70
▁Rund 70
▁Sie 70
▁Step 70
▁Tit 70
▁Toronto 70
▁Tudor 70
▁Und 70
▁Vera 70
▁Veteran 70
▁alfabet 70
▁bizar 70
▁bru 70
▁fora 70
▁influenza 70
▁investigar 70
▁kids 70
▁log 70
▁magistr 70
▁manifestation 70
▁marketplace 70
▁multimedia 70
▁porumb 70
▁readers 70
▁seria 70
▁tap 70
▁vre 70
▁www 70
/2002 69
Arti 69
BU 69
FIC 69
alba 69
asca 69
bl 69
cse 69
cta 69
hall 69
iro 69
kash 69
pien 69
piri 69
real 69
rings 69
sher 69
tamina 69
yu 69
▁101 69
▁165 69
▁5- 69
▁AI 69
▁Aleksander 69
▁Blogger 69
▁Clean 69
▁Hata 69
▁Intel 69
▁Istri 69
▁Mata 69
▁Miller 69
▁Nick 69
▁Sed 69
▁barra 69
▁bis 69
▁brak 69
▁cadou 69
▁celebra 69
▁convert 69
▁cruz 69
▁entre 69
▁exciting 69
▁flora 69
▁folclor 69
▁hair 69
▁hier 69
▁hom 69
▁injury 69
▁insigni 69
▁mirror 69
▁mănânc 69
▁nema 69
▁partizan 69
▁pseudo 69
▁pyramid 69
▁sui 69
▁tho 69
▁wasn 69
▁ze 69
96 68
Fac 68
NET 68
Stra 68
aci 68
adis 68
blu 68
children 68
gina 68
iano 68
luk 68
lump 68
lys 68
nature 68
phi 68
rand 68
sole 68
stum 68
vante 68
vos 68
yay 68
zero 68
▁107 68
▁113 68
▁3) 68
▁3- 68
▁Aleksandr 68
▁Books 68
▁Cale 68
▁Christopher 68
▁Close 68
▁Dari 68
▁Det 68
▁Dubai 68
▁Exerci 68
▁Fru 68
▁Gö 68
▁Haut 68
▁Hazi 68
▁Hell 68
▁Hopefully 68
▁Indonezi 68
▁Magna 68
▁Mam 68
▁Scandinav 68
▁Schmidt 68
▁Siri 68
▁Tim 68
▁Veliko 68
▁aba 68
▁antrenament 68
▁chat 68
▁cleaning 68
▁confirmar 68
▁folklor 68
▁glori 68
▁happiness 68
▁hypothe 68
▁impreuna 68
▁marina 68
▁minerale 68
▁plates 68
▁shar 68
▁thankful 68
▁till 68
▁tomato 68
▁transversal 68
37 67
7) 67
India 67
Radio 67
Uni 67
VO 67
West 67
bb 67
box 67
dari 67
dov 67
harmoni 67
ington 67
lig 67
ljan 67
rar 67
shir 67
uel 67
www 67
▁Aero 67
▁Articol 67
▁Concord 67
▁Erdoğan 67
▁Eva 67
▁Existen 67
▁Family 67
▁Harry 67
▁Imam 67
▁Intens 67
▁Marca 67
▁Mohammed 67
▁Paolo 67
▁Ron 67
▁Schol 67
▁Slavon 67
▁Storm 67
▁Toni 67
▁Uz 67
▁Vital 67
▁Wor 67
▁anu 67
▁ceramic 67
▁certificat 67
▁crush 67
▁diamant 67
▁fat 67
▁flori 67
▁interna 67
▁mad 67
▁oras 67
▁pulled 67
▁puzzle 67
▁robot 67
▁slabi 67
▁slim 67
▁symptoms 67
▁tentativa 67
-2011 66
73 66
CRA 66
China 66
IMO 66
OST 66
She 66
Tele 66
apa 66
bow 66
cind 66
csa 66
dd 66
dii 66
equilibri 66
find 66
fini 66
hov 66
lug 66
melt 66
proces 66
qu 66
riet 66
sif 66
som 66
spot 66
stant 66
trin 66
ucci 66
vera 66
weg 66
zna 66
▁+ 66
▁1,0 66
▁1.8 66
▁1976 66
▁204 66
▁218 66
▁60- 66
▁ADN 66
▁Amin 66
▁Austin 66
▁CS 66
▁Cala 66
▁Compre 66
▁Dic 66
▁Experience 66
▁Hart 66
▁Jelas 66
▁Kh 66
▁Language 66
▁Legii 66
▁Leonardo 66
▁Loch 66
▁Mera 66
▁Mirror 66
▁PRI 66
▁Pari 66
▁Pharma 66
▁Pieter 66
▁Qa 66
▁Samo 66
▁Seri 66
▁Tenis 66
▁Ud 66
▁archiv 66
▁bless 66
▁bâ 66
▁contempla 66
▁dic 66
▁dress 66
▁fascina 66
▁filter 66
▁gau 66
▁hau 66
▁kilo 66
▁mac 66
▁marathon 66
▁metre 66
▁multitud 66
▁piramid 66
▁swimming 66
▁tram 66
▁tratar 66
▁variation 66
▁vehicula 66
▁vs 66
"), 65
/8 65
2%) 65
34 65
54 65
57 65
736 65
80,000 65
83 65
UR 65
assemble 65
cht 65
continuare 65
from 65
glez 65
itten 65
jka 65
lezi 65
lian 65
nek 65
oro 65
passion 65
pop 65
quad 65
rance 65
rav 65
riste 65
rman 65
show 65
tato 65
tud 65
visit 65
án 65
▁2,7 65
▁Ama 65
▁BP 65
▁Capacita 65
▁Challenge 65
▁Entre 65
▁Extrem 65
▁Flu 65
▁Kin 65
▁München 65
▁Palm 65
▁Pilot 65
▁Prince 65
▁Prix 65
▁Problem 65
▁Strong 65
▁VIII 65
▁Welcome 65
▁ade 65
▁alin 65
▁asal 65
▁campus 65
▁dile 65
▁discord 65
▁eminent 65
▁frame 65
▁hill 65
▁interact 65
▁inventar 65
▁maraton 65
▁merce 65
▁naming 65
▁pere 65
▁pistol 65
▁preocupe 65
▁protagon 65
▁racist 65
▁royal 65
▁stre 65
▁submarin 65
▁taste 65
▁tir 65
▁torn 65
▁vicini 65
▁zice 65
"). 64
BI 64
SKO 64
Ter 64
Yes 64
atie 64
bry 64
driv 64
extrem 64
ferenc 64
fl 64
forma 64
gler 64
hagen 64
hila 64
kia 64
ksa 64
latura 64
nari 64
pessimist 64
propria 64
rani 64
riza 64
school 64
shire 64
sina 64
zir 64
ę 64
▁(...) 64
▁1000 64
▁168 64
▁210 64
▁28. 64
▁40- 64
▁Card 64
▁Constant 64
▁Consul 64
▁Deep 64
▁FEDER 64
▁Fort 64
▁Holy 64
▁Hour 64
▁Karlov 64
▁Mua 64
▁Nad 64
▁Rotterdam 64
▁Score 64
▁Song 64
▁Sot 64
▁Tym 64
▁Vinci 64
▁Wester 64
▁Wimbledon 64
▁bon 64
▁chirurg 64
▁clothes 64
▁curios 64
▁ef 64
▁faca 64
▁gama 64
▁gi 64
▁gust 64
▁interactive 64
▁interni 64
▁lesbi 64
▁memor 64
▁mig 64
▁organization 64
▁politico 64
▁rezident 64
▁succession 64
▁summo 64
▁temple 64
▁tire 64
1%) 63
Day 63
Direct 63
Er 63
IAS 63
JA 63
Luc 63
ONU 63
ander 63
bris 63
cata 63
chir 63
cita 63
dorf 63
felt 63
geno 63
ghan 63
kovo 63
kul 63
mix 63
moni 63
oana 63
rine 63
sional 63
timi 63
uch 63
unter 63
venant 63
ventur 63
vir 63
vocation 63
ziti 63
▁0,5% 63
▁1,9 63
▁145 63
▁2,2 63
▁26- 63
▁380 63
▁Alpin 63
▁Angeles 63
▁Apple 63
▁Aus 63
▁Cen 63
▁Dow 63
▁Eric 63
▁Factor 63
▁Familie 63
▁LA 63
▁Limit 63
▁Marketing 63
▁Oper 63
▁Orange 63
▁Petersburg 63
▁Point 63
▁Porto 63
▁Salvador 63
▁Sme 63
▁Stand 63
▁Vali 63
▁Visit 63
▁Vlada 63
▁Wilson 63
▁articula 63
▁comporta 63
▁costume 63
▁cv 63
▁exempli 63
▁explorar 63
▁imigrant 63
▁inovativ 63
▁jihad 63
▁lesbian 63
▁mala 63
▁nostalgi 63
▁pl 63
▁powder 63
▁priveste 63
▁sore 63
▁synth 63
▁tie 63
▁zic 63
-5 62
1/ 62
56% 62
9,000 62
Bal 62
EVO 62
Jo 62
New 62
Of 62
Sp 62
TINA 62
VI 62
aldi 62
avi 62
brand 62
cenia 62
emia 62
including 62
lazi 62
llahu 62
naj 62
nish 62
pole 62
posa 62
rifi 62
viv 62
vro 62
▁1.1 62
▁117 62
▁AMB 62
▁Audio 62
▁Awards 62
▁Babi 62
▁Boro 62
▁Buiten 62
▁Concert 62
▁Drew 62
▁Especial 62
▁Eugen 62
▁Flori 62
▁Frau 62
▁Get 62
▁Grab 62
▁Habsburg 62
▁Helmut 62
▁Hughes 62
▁INS 62
▁Look 62
▁Lor 62
▁POS 62
▁Pavlov 62
▁Pip 62
▁Ponta 62
▁Prvo 62
▁Roz 62
▁SARA 62
▁Scen 62
▁Spor 62
▁Status 62
▁Success 62
▁Tah 62
▁Tiger 62
▁Vergi 62
▁Verifica 62
▁Wit 62
▁ama 62
▁asa 62
▁aspirin 62
▁cai 62
▁dinner 62
▁eros 62
▁generator 62
▁hell 62
▁laboratori 62
▁metr 62
▁panto 62
▁random 62
▁rifle 62
▁sef 62
▁stark 62
▁thai 62
▁ved 62
-0 61
87 61
HP 61
OLA 61
Plan 61
badi 61
bara 61
check 61
dente 61
gry 61
hau 61
hill 61
ije 61
improv 61
ization 61
maj 61
modern 61
mone 61
né 61
plet 61
pura 61
rou 61
service 61
sever 61
source 61
then 61
uca 61
vii 61
vita 61
zad 61
zy 61
á 61
▁(6) 61
▁0.1 61
▁1.000 61
▁12:00 61
▁2018. 61
▁Ask 61
▁Bali 61
▁Bat 61
▁Beli 61
▁Chapter 61
▁Continua 61
▁DC 61
▁Horizon 61
▁Hum 61
▁Hut 61
▁Jonathan 61
▁Lap 61
▁Loca 61
▁Morris 61
▁Musa 61
▁NA 61
▁Pun 61
▁Raff 61
▁Sanchez 61
▁Something 61
▁Stadium 61
▁Trend 61
▁Vancouver 61
▁acredita 61
▁brilliant 61
▁castra 61
▁confess 61
▁grain 61
▁guess 61
▁harta 61
▁imperfect 61
▁litr 61
▁lustr 61
▁moza 61
▁og 61
▁pat 61
▁pedofil 61
▁prez 61
▁spontane 61
▁tanta 61
▁touche 61
▁îndrăg 61
-6 60
01 60
7- 60
77 60
88 60
KO 60
Ob 60
Sha 60
Sloven 60
Sol 60
YP 60
ambi 60
auf 60
eline 60
ello 60
elo 60
fani 60
goj 60
got 60
hout 60
kara 60
kiewicz 60
laga 60
lage 60
lighting 60
offre 60
option 60
princip 60
puri 60
rali 60
rze 60
sang 60
serva 60
sex 60
stas 60
tiche 60
uli 60
ust 60
vino 60
witz 60
yet 60
▁9.00 60
▁Abd 60
▁Abs 60
▁Ahmed 60
▁Alexandru 60
▁Beg 60
▁Biblioteca 60
▁Brug 60
▁Canal 60
▁Comentarii 60
▁Contest 60
▁Cosmo 60
▁Dobro 60
▁Díaz 60
▁Ernst 60
▁Gjergj 60
▁Halk 60
▁Hann 60
▁Hat 60
▁Kranj 60
▁Margaret 60
▁Max 60
▁Mexican 60
▁OK 60
▁Ok 60
▁Opinion 60
▁Panel 60
▁Photos 60
▁Priorit 60
▁Realiza 60
▁Rhod 60
▁SAP 60
▁Seb 60
▁Ses 60
▁Sønder 60
▁Temer 60
▁Thom 60
▁Visi 60
▁addit 60
▁affiliate 60
▁asimila 60
▁atat 60
▁cardiovascular 60
▁coas 60
▁completar 60
▁couldn 60
▁dele 60
▁fili 60
▁followers 60
▁gros 60
▁hali 60
▁ingredient 60
▁nazist 60
▁promotor 60
▁rag 60
▁salute 60
▁shak 60
▁teroriz 60
▁visual 60
▁wouldn 60
56 59
Im 59
Imp 59
LE 59
TIR 59
UU 59
World 59
ald 59
ascens 59
ety 59
ghetto 59
gli 59
grave 59
jek 59
maan 59
main 59
metre 59
mula 59
niu 59
nor 59
nse 59
onym 59
portu 59
quer 59
raud 59
strom 59
stub 59
xes 59
én 59
▁1-0 59
▁31. 59
▁Application 59
▁Bon 59
▁CC 59
▁Eg 59
▁Essential 59
▁Evolu 59
▁Imagine 59
▁Ly 59
▁MTV 59
▁Malcolm 59
▁Morning 59
▁Petra 59
▁Plu 59
▁Scha 59
▁Shir 59
▁Shu 59
▁Sig 59
▁Stone 59
▁Stop 59
▁Systems 59
▁TU 59
▁Technologie 59
▁Territorial 59
▁acer 59
▁banal 59
▁beer 59
▁corpul 59
▁cruise 59
▁dieta 59
▁ev 59
▁impresionante 59
▁iubit 59
▁lake 59
▁league 59
▁medication 59
▁mintea 59
▁ner 59
▁nerv 59
▁packaging 59
▁pui 59
▁ramane 59
▁sci 59
▁situatia 59
▁umplut 59
0,0 58
3.6 58
ANKA 58
AT 58
Af 58
Das 58
KS 58
ORA 58
RE 58
USA 58
aus 58
bala 58
belt 58
cion 58
covi 58
dine 58
dob 58
dova 58
erland 58
fle 58
gori 58
grafic 58
iniu 58
ladi 58
lf 58
liana 58
ngiz 58
ntes 58
ota 58
rski 58
sou 58
sulta 58
surat 58
tha 58
two 58
tza 58
uj 58
uto 58
valo 58
vid 58
wart 58
zg 58
▁00 58
▁111 58
▁19- 58
▁1951 58
▁Ag 58
▁Alfa 58
▁Arsen 58
▁Attack 58
▁BRU 58
▁Bek 58
▁Capitol 58
▁Carlo 58
▁Centru 58
▁DVD 58
▁Ecuador 58
▁Flo 58
▁Ghi 58
▁Gore 58
▁HK 58
▁IN 58
▁Interpreta 58
▁Josef 58
▁Kanal 58
▁Kok 58
▁Liebe 58
▁Living 58
▁Mano 58
▁Massa 58
▁Mercedes 58
▁Moon 58
▁Nazar 58
▁Plo 58
▁Sandra 58
▁Sap 58
▁Stad 58
▁Tem 58
▁Things 58
▁Tunc 58
▁Use 58
▁Vak 58
▁Vse 58
▁austral 58
▁auxiliar 58
▁cardio 58
▁cm 58
▁convocat 58
▁dizi 58
▁furniture 58
▁irrita 58
▁lucky 58
▁numeri 58
▁purifica 58
▁renov 58
▁sava 58
▁sch 58
▁tandem 58
▁techno 58
▁tena 58
▁typically 58
▁vei 58
▁vezi 58
▁visi 58
▁zu 58
25% 57
539 57
64 57
76 57
97 57
CIS 57
JI 57
LA 57
NC 57
Organ 57
SIA 57
angle 57
atii 57
cense 57
cone 57
curso 57
dag 57
jet 57
kull 57
mura 57
patient 57
pc 57
program 57
shka 57
ssimi 57
therapy 57
és 57
▁26, 57
▁325 57
▁460 57
▁Accident 57
▁Anterior 57
▁Assessment 57
▁Bericht 57
▁Bin 57
▁Candi 57
▁Chat 57
▁Chicago 57
▁Counter 57
▁Drama 57
▁Ent 57
▁Giorgio 57
▁Jack 57
▁LI 57
▁Laurent 57
▁Lehti 57
▁Magyar 57
▁Mel 57
▁Parent 57
▁Pel 57
▁Pic 57
▁Saba 57
▁Self 57
▁Trading 57
▁Zvez 57
▁anomali 57
▁assim 57
▁catalogue 57
▁center 57
▁centra 57
▁definir 57
▁desco 57
▁discern 57
▁drift 57
▁eleva 57
▁envelop 57
▁favorite 57
▁fusion 57
▁gravi 57
▁hyper 57
▁ince 57
▁lente 57
▁lum 57
▁mechanic 57
▁piedi 57
▁proposition 57
▁replied 57
▁rezistent 57
▁sfida 57
▁sinonim 57
▁sleep 57
▁sp 57
▁tale 57
▁tired 57
▁tribut 57
▁varianta 57
▁walked 57
/2003 56
/6 56
ADH 56
BIA 56
NEK 56
NO 56
Opera 56
administration 56
bert 56
bito 56
cola 56
dig 56
disciplin 56
enstein 56
fik 56
ias 56
icht 56
ius 56
kate 56
muz 56
normal 56
oral 56
ovci 56
pine 56
prod 56
senti 56
spira 56
ston 56
varia 56
veta 56
yp 56
▁$10 56
▁128 56
▁1915 56
▁2.2 56
▁Advisor 56
▁Afla 56
▁Argentin 56
▁Blok 56
▁Bosan 56
▁Comment 56
▁Czar 56
▁Design 56
▁Fire 56
▁Hali 56
▁Hard 56
▁IM 56
▁Intr 56
▁Klan 56
▁Liv 56
▁MHP 56
▁Mats 56
▁Method 56
▁Money 56
▁Natal 56
▁Need 56
▁Ner 56
▁Night 56
▁Plat 56
▁Rak 56
▁Sabi 56
▁Santos 56
▁Srbije 56
▁Sz 56
▁TB 56
▁Veterinar 56
▁agenti 56
▁bell 56
▁binecuvânt 56
▁cleric 56
▁configura 56
▁convenient 56
▁fiction 56
▁mild 56
▁omni 56
▁palp 56
▁prezidenti 56
▁profunda 56
▁promulga 56
▁reden 56
▁refrigera 56
▁responsive 56
▁reven 56
▁seis 56
▁stan 56
▁suda 56
▁tamil 56
▁vole 56
▁volle 56
▁wi 56
0 55
2.8 55
43 55
74 55
ANI 55
CCP 55
Centr 55
INN 55
INTA 55
Ku 55
MES 55
UP 55
ay 55
bio 55
cera 55
cerca 55
etti 55
fine 55
gis 55
hala 55
ido 55
iller 55
ishi 55
mov 55
ntar 55
pli 55
range 55
subst 55
ulo 55
▁104 55
▁124 55
▁151 55
▁182 55
▁340 55
▁7,5 55
▁Basic 55
▁Cast 55
▁Christ 55
▁Dimension 55
▁Divi 55
▁Georg 55
▁Hanne 55
▁Hem 55
▁Hier 55
▁Ioannis 55
▁Jong 55
▁Jurnalist 55
▁Kala 55
▁Legend 55
▁Mufti 55
▁Natalia 55
▁Net 55
▁Perform 55
▁Poetry 55
▁Promotion 55
▁Príncipe 55
▁Queen 55
▁Regul 55
▁Salva 55
▁Space 55
▁Tata 55
▁Um 55
▁Unity 55
▁Vreme 55
▁Weekly 55
▁Xavier 55
▁ana 55
▁astronomi 55
▁bizantin 55
▁capri 55
▁certific 55
▁cocktail 55
▁depression 55
▁dir 55
▁divulga 55
▁entuziast 55
▁escr 55
▁evo 55
▁exigent 55
▁fal 55
▁feu 55
▁gli 55
▁imita 55
▁kilometr 55
▁opo 55
▁pahar 55
▁pos 55
▁refr 55
▁reserv 55
▁sanit 55
▁skin 55
▁terapi 55
▁turul 55
▁valuta 55
78 54
:// 54
ICI 54
IL 54
WAS 54
Zi 54
amp 54
ave 54
cross 54
dang 54
efect 54
hasa 54
invent 54
ival 54
lane 54
mad 54
name 54
nikov 54
nka 54
onin 54
register 54
rma 54
second 54
tius 54
urnar 54
version 54
zep 54
▁129 54
▁188 54
▁208 54
▁AD 54
▁Agent 54
▁Ann 54
▁Aviv 54
▁Barba 54
▁Benjamin 54
▁Captain 54
▁Colo 54
▁Esto 54
▁Fay 54
▁Fidesz 54
▁Florin 54
▁HD 54
▁Hidro 54
▁Jung 54
▁Kalo 54
▁Krye 54
▁Kul 54
▁Level 54
▁Lula 54
▁MHz 54
▁Manchester 54
▁Mimo 54
▁Pene 54
▁Pentagon 54
▁Pin 54
▁Prev 54
▁Quo 54
▁Române 54
▁Taba 54
▁Telenor 54
▁Trag 54
▁Ut 54
▁Vit 54
▁Vlade 54
▁Wen 54
▁annum 54
▁asteptat 54
▁bene 54
▁cab 54
▁curious 54
▁facultate 54
▁fluid 54
▁fram 54
▁infants 54
▁isteri 54
▁labur 54
▁lucid 54
▁millenni 54
▁ons 54
▁patch 54
▁performant 54
▁personaj 54
▁posta 54
▁povesti 54
▁remediu 54
▁revizi 54
▁steril 54
▁ure 54
66 53
Bar 53
Cap 53
ECO 53
ESI 53
GM 53
OI 53
PUR 53
SSE 53
UND 53
VP 53
bab 53
boo 53
bora 53
cante 53
circ 53
data 53
dne 53
eh 53
ey 53
fum 53
ionis 53
kien 53
lief 53
loom 53
nk 53
osti 53
oth 53
parta 53
tang 53
tese 53
than 53
xon 53
▁161 53
▁1944 53
▁6,5 53
▁7.5 53
▁Abi 53
▁Atlet 53
▁Brit 53
▁Bul 53
▁Cr 53
▁Effective 53
▁Extra 53
▁Fotografi 53
▁Gio 53
▁Guara 53
▁Help 53
▁Industri 53
▁Kot 53
▁Lin 53
▁Lit 53
▁Medal 53
▁Moment 53
▁Monica 53
▁Motion 53
▁Product 53
▁Rodríguez 53
▁Rush 53
▁Salt 53
▁Side 53
▁Sil 53
▁Ski 53
▁Trav 53
▁Us 53
▁Vijesti 53
▁acqua 53
▁ambula 53
▁arra 53
▁bunker 53
▁depresi 53
▁dili 53
▁fatigue 53
▁fli 53
▁geologi 53
▁hul 53
▁interroga 53
▁nef 53
▁odd 53
▁pasiune 53
▁posting 53
▁rendi 53
▁scam 53
▁seminari 53
▁soi 53
▁spi 53
▁stuff 53
71 52
81 52
84 52
Aquila 52
EST 52
OMI 52
Ve 52
aba 52
alo 52
anca 52
casa 52
cuba 52
danie 52
dinti 52
document 52
fed 52
ffin 52
fiant 52
fraction 52
haj 52
isha 52
jev 52
laku 52
lem 52
mera 52
oir 52
rai 52
retur 52
shta 52
siden 52
sidi 52
sime 52
sse 52
unga 52
zaj 52
zed 52
ós 52
▁$3 52
▁0,6 52
▁118 52
▁1949 52
▁1957 52
▁540 52
▁Anastasi 52
▁Aristo 52
▁Brat 52
▁Dance 52
▁Div 52
▁Eventual 52
▁Ever 52
▁Fre 52
▁Galicia 52
▁Gan 52
▁Gay 52
▁Gjilan 52
▁Hassan 52
▁Hä 52
▁Instru 52
▁Iulia 52
▁Josep 52
▁Jutarnj 52
▁Kamal 52
▁Kauf 52
▁Konrad 52
▁Lawrence 52
▁Marathon 52
▁Marti 52
▁Mount 52
▁Muharrem 52
▁Partizan 52
▁Pero 52
▁Present 52
▁Production 52
▁Pus 52
▁Shanghai 52
▁Smo 52
▁Vincent 52
▁Way 52
▁Zelen 52
▁actualizar 52
▁amintiri 52
▁anta 52
▁apri 52
▁baru 52
▁batal 52
▁cardinal 52
▁cartofi 52
▁classroom 52
▁comporte 52
▁decora 52
▁gravita 52
▁hetero 52
▁hl 52
▁horas 52
▁ilumin 52
▁lug 52
▁mica 52
▁muri 52
▁parcel 52
▁saptamana 52
▁schema 52
▁sensation 52
▁shoes 52
▁smile 52
▁spray 52
▁synonym 52
▁teoria 52
▁zis 52
94 51
Comp 51
DO 51
Ga 51
addict 51
autre 51
chel 51
dini 51
fail 51
feder 51
fli 51
gini 51
global 51
interpret 51
pia 51
shu 51
sled 51
unt 51
vier 51
zet 51
ée 51
▁157 51
▁2,3 51
▁3-1 51
▁AE 51
▁Armen 51
▁BK 51
▁Chr 51
▁Comune 51
▁Cos 51
▁Dans 51
▁Dé 51
▁Elbasan 51
▁Eliza 51
▁Ina 51
▁Master 51
▁NE 51
▁Operativ 51
▁Professional 51
▁Rafa 51
▁Reme 51
▁Rit 51
▁Sli 51
▁Town 51
▁Tradition 51
▁Voca 51
▁amator 51
▁analog 51
▁apuc 51
▁aval 51
▁cafea 51
▁casino 51
▁copilărie 51
▁dif 51
▁duo 51
▁entertain 51
▁fotografia 51
▁franco 51
▁garden 51
▁generar 51
▁intreaga 51
▁medio 51
▁moderator 51
▁plato 51
▁spy 51
▁technique 51
▁tramp 51
▁trauma 51
▁villa 51
▁virgin 51
-1 50
2010 50
EUR 50
Mai 50
OSI 50
RM 50
Sullivan 50
TE 50
Tan 50
United 50
abi 50
ache 50
coop 50
copi 50
garten 50
info 50
inn 50
liver 50
llen 50
metra 50
oke 50
onte 50
osta 50
oto 50
pania 50
poca 50
rey 50
rsat 50
sistem 50
span 50
tay 50
thema 50
yra 50
ziv 50
▁0.2 50
▁1972 50
▁29. 50
▁370 50
▁Academic 50
▁Active 50
▁Airbus 50
▁Alo 50
▁Bora 50
▁CSR 50
▁Caracter 50
▁Catalan 50
▁Cerca 50
▁Córdoba 50
▁Defini 50
▁Die 50
▁Dzi 50
▁Ericsson 50
▁Find 50
▁Goethe 50
▁Henry 50
▁Hope 50
▁Jel 50
▁Kava 50
▁Lim 50
▁Mato 50
▁Monaco 50
▁Nicola 50
▁Otto 50
▁PVC 50
▁Punjab 50
▁Pyr 50
▁Rapid 50
▁SMS 50
▁Stu 50
▁Tarif 50
▁True 50
▁Wil 50
▁Wojciech 50
▁Yusuf 50
▁acc 50
▁angle 50
▁bande 50
▁color 50
▁comerciant 50
▁feminist 50
▁flowers 50
▁fro 50
▁hool 50
▁imagination 50
▁informatii 50
▁jam 50
▁mexi 50
▁minun 50
▁momentan 50
▁monar 50
▁neighbor 50
▁persuasi 50
▁prega 50
▁psychiatr 50
▁recap 50
▁rutin 50
▁saptamani 50
▁scratch 50
▁selle 50
▁singular 50
▁sopra 50
▁sustine 50
▁tanker 50
▁turbin 50
▁unna 50
▁variante 50
3.8 49
65 49
America 49
BP 49
CES 49
CHO 49
Ci 49
Die 49
IH 49
STAT 49
San 49
account 49
arski 49
chem 49
como 49
ero 49
gawa 49
haz 49
ild 49
information 49
kat 49
lama 49
leme 49
lips 49
nomina 49
ocupa 49
ole 49
ragan 49
raz 49
resa 49
rezerv 49
soft 49
tho 49
tora 49
uga 49
vs 49
was 49
zari 49
öl 49
ńska 49
▁1964 49
▁320 49
▁9- 49
▁950 49
▁Automobil 49
▁Bell 49
▁Cart 49
▁DHA 49
▁Emin 49
▁Garant 49
▁Gry 49
▁Hill 49
▁Ide 49
▁Jasmin 49
▁Jin 49
▁Labor 49
▁Love 49
▁MB 49
▁Ofte 49
▁Politi 49
▁Raja 49
▁Regina 49
▁SS 49
▁Universit 49
▁Uruguay 49
▁View 49
▁Win 49
▁Zahra 49
▁balan 49
▁bind 49
▁brun 49
▁culpa 49
▁dai 49
▁dispara 49
▁dram 49
▁fue 49
▁gla 49
▁heel 49
▁monarch 49
▁mosaic 49
▁multidisciplina 49
▁nee 49
▁oriente 49
▁oro 49
▁persevera 49
▁piele 49
▁server 49
▁venez 49
▁venire 49
▁verdi 49
2.5 48
3,4 48
59 48
Just 48
Sal 48
agan 48
ales 48
aux 48
cinta 48
creati 48
dant 48
dja 48
ecki 48
elli 48
foot 48
heim 48
help 48
inat 48
infect 48
kende 48
kent 48
kopi 48
mans 48
nico 48
nique 48
ondo 48
pathy 48
ppet 48
rbe 48
rig 48
rizo 48
roman 48
rop 48
soy 48
tani 48
uf 48
vali 48
vjet 48
wald 48
xis 48
yal 48
yin 48
zino 48
▁100- 48
▁174 48
▁179 48
▁2-1 48
▁207 48
▁225 48
▁Barri 48
▁Bing 48
▁Block 48
▁Bolivia 48
▁Cardinal 48
▁Dominic 48
▁Dona 48
▁Douglas 48
▁Gale 48
▁Glen 48
▁Half 48
▁Hamburg 48
▁Hein 48
▁Johannesburg 48
▁Kaba 48
▁Keller 48
▁Kit 48
▁Klein 48
▁Lac 48
▁Make 48
▁Maksim 48
▁Marcos 48
▁Matt 48
▁Nacional 48
▁Nature 48
▁Normal 48
▁Oct 48
▁Portal 48
▁Products 48
▁Rob 48
▁Rohingya 48
▁SAD 48
▁Sabah 48
▁Seks 48
▁Spiegel 48
▁Steaua 48
▁Tay 48
▁Tir 48
▁VIP 48
▁Village 48
▁Vita 48
▁aca 48
▁alternativa 48
▁amazing 48
▁ange 48
▁bak 48
▁bath 48
▁booking 48
▁centri 48
▁circular 48
▁contexte 48
▁cordial 48
▁developer 48
▁finit 48
▁frustr 48
▁glan 48
▁incerca 48
▁jung 48
▁maior 48
▁parking 48
▁quant 48
▁rin 48
▁rot 48
▁sans 48
▁sensi 48
▁sista 48
▁stav 48
▁toy 48
▁transporte 48
▁trib 48
▁ya 48
-31 47
40% 47
58 47
FS 47
Mos 47
Not 47
PSI 47
Te 47
aggregat 47
bby 47
black 47
draw 47
hali 47
hear 47
ick 47
ikos 47
imin 47
ister 47
nale 47
pent 47
portal 47
posti 47
rale 47
rogen 47
rry 47
sav 47
seen 47
shot 47
simi 47
tika 47
umbi 47
vr 47
yana 47
▁$5 47
▁155 47
▁194 47
▁216 47
▁34. 47
▁Adapt 47
▁Andrej 47
▁Bring 47
▁Bug 47
▁Castle 47
▁Davies 47
▁Eli 47
▁Gue 47
▁Inte 47
▁Job 47
▁Julian 47
▁Lapse 47
▁Mura 47
▁Nee 47
▁Ovidiu 47
▁Pitt 47
▁Sach 47
▁Sexual 47
▁Tek 47
▁Transforma 47
▁Uyg 47
▁adam 47
▁altera 47
▁bud 47
▁carpet 47
▁conceptual 47
▁cruce 47
▁durable 47
▁ed 47
▁episod 47
▁esto 47
▁existen 47
▁extrema 47
▁galeria 47
▁horrible 47
▁london 47
▁mob 47
▁nun 47
▁podium 47
▁poly 47
▁porta 47
▁recognize 47
▁reflex 47
▁remis 47
▁rugăciune 47
▁slippe 47
▁stu 47
▁stup 47
▁sweet 47
▁templ 47
▁testament 47
▁trim 47
▁tău 47
150 46
53 46
68 46
Ab 46
BER 46
FET 46
Napoca 46
Or 46
SES 46
SPA 46
any 46
arto 46
ash 46
divi 46
eed 46
fak 46
feta 46
impl 46
kir 46
lift 46
metr 46
mobil 46
mpa 46
nava 46
owska 46
rosi 46
rudi 46
scul 46
spirant 46
ssi 46
taki 46
ulis 46
vidi 46
wie 46
wl 46
yon 46
zde 46
ã 46
ça 46
▁163 46
▁185 46
▁21- 46
▁33. 46
▁480 46
▁6.5 46
▁8- 46
▁Admiral 46
▁Amir 46
▁Andrea 46
▁Anno 46
▁Ari 46
▁Arthur 46
▁Atlanta 46
▁Autori 46
▁Baden 46
▁Bau 46
▁Bere 46
▁Bosna 46
▁Box 46
▁Brenn 46
▁Castel 46
▁Coca 46
▁Computer 46
▁Dag 46
▁Dio 46
▁EH 46
▁Ethiopia 46
▁Geno 46
▁Grant 46
▁Harvard 46
▁IKEA 46
▁Inf 46
▁Kami 46
▁Kiss 46
▁Laura 46
▁Log 46
▁Maz 46
▁Mev 46
▁Mohamed 46
▁Nada 46
▁Ngo 46
▁Noord 46
▁Optim 46
▁Panama 46
▁Pare 46
▁Primo 46
▁Prov 46
▁Rand 46
▁Roger 46
▁Sociolog 46
▁Spin 46
▁Stuttgart 46
▁Sultan 46
▁Supp 46
▁Target 46
▁Tower 46
▁Tug 46
▁Werner 46
▁amar 46
▁avangard 46
▁ces 46
▁confession 46
▁confort 46
▁conscient 46
▁crazy 46
▁custodia 46
▁dominan 46
▁fir 46
▁flore 46
▁graf 46
▁hem 46
▁icon 46
▁inconvenient 46
▁lamenta 46
▁magnet 46
▁mud 46
▁peculiar 46
▁physician 46
▁plug 46
▁repar 46
▁sini 46
▁spel 46
▁stali 46
▁swing 46
▁symptom 46
▁thread 46
▁è 46
2009 45
ENS 45
GRI 45
JE 45
Je 45
ST 45
TR 45
bomb 45
centra 45
comunitari 45
ctio 45
cult 45
cultor 45
flet 45
gazda 45
illian 45
image 45
inf 45
lant 45
lji 45
mbar 45
natural 45
ndra 45
ood 45
otto 45
phos 45
pila 45
poly 45
ppo 45
rapport 45
rella 45
rilla 45
rimi 45
self 45
sent 45
tons 45
union 45
uris 45
wear 45
▁0,2 45
▁0.3 45
▁134 45
▁139 45
▁148 45
▁156 45
▁2.3 45
▁202 45
▁21.00 45
▁APP 45
▁Allah 45
▁Auschwitz 45
▁Capo 45
▁Cata 45
▁Dupa 45
▁EMS 45
▁Etiopi 45
▁Excel 45
▁Guvernului 45
▁Hin 45
▁Jana 45
▁Jorge 45
▁Know 45
▁Metropolitan 45
▁Pand 45
▁Rafi 45
▁Sancti 45
▁Seminar 45
▁Sev 45
▁Sitzung 45
▁Sophia 45
▁Soros 45
▁Think 45
▁Track 45
▁UC 45
▁Uhr 45
▁Virtual 45
▁balet 45
▁blo 45
▁cook 45
▁cutie 45
▁detectar 45
▁dies 45
▁doctrina 45
▁eru 45
▁filosofi 45
▁formidable 45
▁fotbalist 45
▁fruits 45
▁garn 45
▁iubesc 45
▁joke 45
▁județul 45
▁mill 45
▁minta 45
▁nefa 45
▁organizator 45
▁outdoor 45
▁pea 45
▁rip 45
▁sap 45
▁skep 45
▁subtil 45
▁tine 45
▁trop 45
▁trump 45
▁viu 45
▁y 45
"... 44
367 44
9.5 44
ARD 44
Fra 44
Yu 44
continent 44
dier 44
dijk 44
dr 44
eira 44
elas 44
escent 44
ezh 44
gram 44
heir 44
heng 44
hri 44
indi 44
jere 44
kiri 44
ković 44
menti 44
mics 44
oon 44
resor 44
rhythm 44
rico 44
sett 44
ssen 44
terie 44
tery 44
yi 44
ˈ 44
▁127 44
▁132 44
▁1962 44
▁2,8 44
▁5.5 44
▁Alternativ 44
▁CV 44
▁Castillo 44
▁Conte 44
▁Corporate 44
▁Danas 44
▁Dok 44
▁Eid 44
▁Erde 44
▁Graham 44
▁Grub 44
▁Hamid 44
▁Heidelberg 44
▁Hod 44
▁IX 44
▁Jeffrey 44
▁Jensen 44
▁Justin 44
▁Kera 44
▁Kop 44
▁Loan 44
▁Mandela 44
▁McDonald 44
▁Million 44
▁Monta 44
▁Nicole 44
▁Novgorod 44
▁Number 44
▁Precis 44
▁Profesional 44
▁Register 44
▁Română 44
▁Singh 44
▁Spy 44
▁Sum 44
▁Sylv 44
▁Tariq 44
▁Vah 44
▁Vers 44
▁Zen 44
▁aeg 44
▁ambalaj 44
▁animo 44
▁crystal 44
▁cuti 44
▁deg 44
▁erro 44
▁galben 44
▁geni 44
▁halv 44
▁hibrid 44
▁lip 44
▁localitat 44
▁mena 44
▁mentale 44
▁metodologia 44
▁nera 44
▁pompa 44
▁pont 44
▁prest 44
▁rebell 44
▁regel 44
▁rendere 44
▁senatu 44
▁spui 44
▁stunning 44
▁vacante 44
▁voucher 44
▁walking 44
▁zo 44
12) 43
2007 43
4,4 43
82 43
AL 43
Eco 43
GO 43
GW 43
acte 43
allah 43
apport 43
arne 43
ater 43
bury 43
cce 43
cn 43
drob 43
ear 43
eux 43
fug 43
giri 43
iler 43
islam 43
jack 43
jah 43
kienė 43
koski 43
lib 43
ller 43
maz 43
mbro 43
mish 43
ová 43
pak 43
pea 43
pela 43
penda 43
pras 43
rap 43
reste 43
rys 43
spring 43
tau 43
teste 43
tex 43
trico 43
universita 43
▁0,3 43
▁178 43
▁195 43
▁3-0 43
▁AF 43
▁Alum 43
▁Associated 43
▁Bien 43
▁Bucuresti 43
▁Cafe 43
▁Dol 43
▁Erd 43
▁Gill 43
▁Guinness 43
▁Heart 43
▁Imagini 43
▁Imi 43
▁Irina 43
▁Jobs 43
▁Johannes 43
▁Jum 43
▁Luc 43
▁Meteorologi 43
▁Provide 43
▁Rio 43
▁Salzburg 43
▁Shell 43
▁Slo 43
▁Smith 43
▁Vad 43
▁arrogant 43
▁ass 43
▁bebe 43
▁ber 43
▁bijuterii 43
▁bizarre 43
▁conversion 43
▁defense 43
▁definitiva 43
▁desen 43
▁ferma 43
▁grati 43
▁imam 43
▁indien 43
▁itin 43
▁izvor 43
▁juste 43
▁nauti 43
▁numarul 43
▁oferir 43
▁poem 43
▁propaga 43
▁rese 43
▁romantic 43
▁sente 43
▁susceptible 43
▁temu 43
▁universitari 43
▁vale 43
▁vendor 43
▁wid 43
▁zdr 43
/02 42
72 42
8.5 42
AW 42
Ale 42
Ant 42
Bol 42
Che 42
EMA 42
HT 42
Hi 42
Kar 42
Mon 42
Nor 42
ON 42
Petr 42
RICA 42
SAS 42
WW 42
alin 42
archi 42
arme 42
arre 42
ayo 42
bad 42
bay 42
bje 42
buff 42
buz 42
cada 42
chester 42
cima 42
current 42
dzenie 42
eken 42
energie 42
figura 42
fos 42
gana 42
gg 42
idele 42
intro 42
lectual 42
lko 42
lus 42
lut 42
marka 42
milia 42
nata 42
nej 42
oki 42
ope 42
pach 42
rse 42
special 42
taka 42
tte 42
wood 42
ń 42
▁119 42
▁169 42
▁181 42
▁183 42
▁1983 42
▁3,2 42
▁4) 42
▁560 42
▁Account 42
▁Allan 42
▁Auk 42
▁Bent 42
▁Bit 42
▁Biz 42
▁Bli 42
▁Brand 42
▁Confi 42
▁Dela 42
▁Desi 42
▁Except 42
▁Exhibition 42
▁FC 42
▁Father 42
▁Fem 42
▁Forbes 42
▁Gim 42
▁Giuseppe 42
▁Graf 42
▁Gud 42
▁HA 42
▁Hava 42
▁Historic 42
▁HotNews 42
▁Inform 42
▁Johan 42
▁Juda 42
▁Koki 42
▁Leonard 42
▁László 42
▁MSN 42
▁Masa 42
▁Medium 42
▁Morav 42
▁Ober 42
▁Ot 42
▁Ott 42
▁POD 42
▁Petru 42
▁Porsche 42
▁Qe 42
▁Rah 42
▁Reserve 42
▁Rossi 42
▁SR 42
▁Stjepan 42
▁Tal 42
▁Turist 42
▁VII 42
▁Wind 42
▁alergi 42
▁banda 42
▁brig 42
▁capit 42
▁comentariul 42
▁conception 42
▁congela 42
▁contemporane 42
▁cos 42
▁cotton 42
▁dialect 42
▁dich 42
▁download 42
▁etern 42
▁fotovoltaic 42
▁gala 42
▁galva 42
▁generis 42
▁god 42
▁godz 42
▁guitar 42
▁honor 42
▁jud 42
▁lin 42
▁mau 42
▁meta 42
▁misterio 42
▁piata 42
▁probable 42
▁shari 42
▁solo 42
▁stemme 42
▁thermo 42
▁vestig 42
▁ye 42
▁zostało 42
6-1 41
8%) 41
9,5 41
900 41
Austr 41
Can 41
ECT 41
ETE 41
Esta 41
ORUM 41
SG 41
antu 41
bau 41
cet 41
club 41
esen 41
extra 41
fem 41
frage 41
fusion 41
gari 41
gir 41
gly 41
greg 41
hale 41
huma 41
illy 41
iñas 41
jali 41
levi 41
oasa 41
process 41
recht 41
rias 41
rib 41
rita 41
roni 41
rún 41
say 41
sey 41
talan 41
urban 41
uren 41
xo 41
zhi 41
þ 41
łę 41
▁162 41
▁22- 41
▁Bü 41
▁Chu 41
▁Craiova 41
▁Disa 41
▁Dos 41
▁Formula 41
▁Fredrik 41
▁Friend 41
▁Gael 41
▁Geographic 41
▁Glo 41
▁Gram 41
▁Hoo 41
▁IR 41
▁Junior 41
▁Line 41
▁Melbourne 41
▁Officer 41
▁Pasa 41
▁Peli 41
▁Produ 41
▁Rem 41
▁Resident 41
▁Richter 41
▁Romani 41
▁Satellite 41
▁Schnell 41
▁Sci 41
▁Senator 41
▁Send 41
▁antiqui 41
▁aren 41
▁boot 41
▁brochure 41
▁cartoon 41
▁cetateni 41
▁conclusi 41
▁curi 41
▁dramaturg 41
▁fren 41
▁hija 41
▁hybrid 41
▁insect 41
▁inser 41
▁lady 41
▁lean 41
▁masura 41
▁meni 41
▁obez 41
▁pali 41
▁prom 41
▁recess 41
▁romani 41
▁sai 41
▁sinagog 41
▁skelet 41
▁sma 41
▁stru 41
▁trom 41
▁vile 41
▁wird 41
546 40
67 40
AR 40
Institut 40
Media 40
TAS 40
VB 40
Was 40
acak 40
alan 40
ario 40
auto 40
bane 40
boa 40
bou 40
brev 40
cto 40
dija 40
dled 40
duh 40
fet 40
flag 40
flat 40
four 40
full 40
garh 40
ggle 40
hini 40
hiri 40
ijs 40
ismo 40
italia 40
iya 40
kina 40
kula 40
lerim 40
lose 40
mbala 40
muse 40
nius 40
njeni 40
onio 40
ordine 40
plex 40
sev 40
ske 40
solut 40
sław 40
tepe 40
tner 40
tova 40
upe 40
uv 40
vete 40
wen 40
▁0,8 40
▁133 40
▁141 40
▁1927 40
▁1946 40
▁2,6 40
▁2.6 40
▁2011) 40
▁3.3 40
▁Alle 40
▁Anda 40
▁Andre 40
▁Bale 40
▁Bilgi 40
▁Bus 40
▁Christina 40
▁Dana 40
▁Demi 40
▁Dob 40
▁Domnului 40
▁Ende 40
▁Fico 40
▁Fri 40
▁Galli 40
▁Gam 40
▁Gis 40
▁Gri 40
▁Guerre 40
▁Guido 40
▁Guillermo 40
▁Hati 40
▁Haug 40
▁Hou 40
▁Hug 40
▁Hypo 40
▁Info 40
▁Jove 40
▁Kut 40
▁Lat 40
▁Lock 40
▁Lou 40
▁Mana 40
▁Meli 40
▁Mutu 40
▁Nagy 40
▁Ohio 40
▁Rica 40
▁Rim 40
▁Robin 40
▁Rolling 40
▁SK 40
▁Sab 40
▁Sari 40
▁Skin 40
▁Stefano 40
▁Tampere 40
▁Theo 40
▁Tina 40
▁Tomas 40
▁Vej 40
▁Vivi 40
▁Ziarul 40
▁Zor 40
▁adauga 40
▁adventure 40
▁alat 40
▁archeologi 40
▁cannabis 40
▁carro 40
▁converte 40
▁culori 40
▁dispens 40
▁fait 40
▁flash 40
▁fut 40
▁glaci 40
▁grote 40
▁grupe 40
▁holo 40
▁indo 40
▁informative 40
▁inlocui 40
▁inner 40
▁inregistrat 40
▁instinct 40
▁laborat 40
▁lapse 40
▁luxe 40
▁monstru 40
▁norma 40
▁ovi 40
▁pause 40
▁pepper 40
▁recrute 40
▁sabo 40
▁sorti 40
▁spontan 40
▁tam 40
▁torrent 40
▁trofe 40
▁trupa 40
/9 39
1,5 39
2011 39
48 39
5.6 39
52 39
= 39
ARS 39
DD 39
ECH 39
ERS 39
Foto 39
GRE 39
Mor 39
Program 39
Ste 39
Tu 39
adh 39
almente 39
anche 39
andi 39
beck 39
[...]
